{"version":"1.0","truncation":null,"padding":null,"added_tokens":[{"id":0,"special":true,"content":"<pad>","single_word":false,"lstrip":false,"rstrip":false,"normalized":true},{"id":1,"special":true,"content":"</s>","single_word":false,"lstrip":false,"rstrip":false,"normalized":true},{"id":2,"special":true,"content":"<s>","single_word":false,"lstrip":false,"rstrip":false,"normalized":true},{"id":65,"special":true,"content":"[CLS]","single_word":false,"lstrip":false,"rstrip":false,"normalized":true},{"id":66,"special":true,"content":"[SEP]","single_word":false,"lstrip":false,"rstrip":false,"normalized":true},{"id":67,"special":true,"content":"[MASK]","single_word":false,"lstrip":true,"rstrip":false,"normalized":true},{"id":100,"special":true,"content":"<unk>","single_word":false,"lstrip":false,"rstrip":false,"normalized":true}],"normalizer":{"type":"Sequence","normalizers":[{"type":"Replace","pattern":{"Regex":" {2,}"},"content":" "}]},"pre_tokenizer":{"type":"Metaspace","replacement":"▁","add_prefix_space":true},"post_processor":{"type":"TemplateProcessing","single":[{"SpecialToken":{"id":"[CLS]","type_id":0}},{"Sequence":{"id":"A","type_id":0}},{"SpecialToken":{"id":"[SEP]","type_id":0}}],"pair":[{"SpecialToken":{"id":"[CLS]","type_id":0}},{"Sequence":{"id":"A","type_id":0}},{"SpecialToken":{"id":"[SEP]","type_id":0}},{"Sequence":{"id":"B","type_id":1}},{"SpecialToken":{"id":"[SEP]","type_id":1}}],"special_tokens":{"[CLS]":{"id":"[CLS]","ids":[65],"tokens":["[CLS]"]},"[SEP]":{"id":"[SEP]","ids":[66],"tokens":["[SEP]"]}}},"decoder":{"type":"Metaspace","replacement":"▁","add_prefix_space":true},"model":{"type":"Unigram","unk_id":100,"vocab":[["<pad>",0.0],["</s>",0.0],["<s>",0.0],["<sep_0>",0.0],["<sep_1>",0.0],["<sep_2>",0.0],["<sep_3>",0.0],["<sep_4>",0.0],["<no_saic_raw_sp>",0.0],["<length_0>",0.0],["<length_1>",0.0],["<length_2>",0.0],["<length_3>",0.0],["<length_4>",0.0],["<length_5>",0.0],["<length_6>",0.0],["<length_7>",0.0],["<length_8>",0.0],["<length_9>",0.0],["<length_10>",0.0],["<length_11>",0.0],["<length_12>",0.0],["<length_13>",0.0],["<length_14>",0.0],["<length_15>",0.0],["<length_16>",0.0],["<length_17>",0.0],["<length_18>",0.0],["<length_19>",0.0],["<length_20>",0.0],["<length_s>",0.0],["<length_m>",0.0],["<length_l>",0.0],["<::::>",0.0],["<space>",0.0],["<unused_34>",0.0],["<unused_35>",0.0],["<unused_36>",0.0],["<no_query_sp>",0.0],["<no_passage_raw_sp>",0.0],["<unused_39>",0.0],["<unused_40>",0.0],["<unused_41>",0.0],["<unused_42>",0.0],["<unused_43>",0.0],["<unused_44>",0.0],["<unused_45>",0.0],["<unused_46>",0.0],["<unused_47>",0.0],["<unused_48>",0.0],["<unused_49>",0.0],["<paraphrasing_0>",0.0],["<paraphrasing_1>",0.0],["<paraphrasing_2>",0.0],["<paraphrasing_3>",0.0],["<paraphrasing_4>",0.0],["<paraphrasing_5>",0.0],["<paraphrasing_6>",0.0],["<paraphrasing_7>",0.0],["<paraphrasing_8>",0.0],["<empty>",0.0],["<row>",0.0],["<cn>",0.0],["<t>",0.0],["<ans>",0.0],["[CLS]",0.0],["[SEP]",0.0],["[MASK]",0.0],["<unused_67>",0.0],["<unused_68>",0.0],["<unused_69>",0.0],["<unused_70>",0.0],["<unused_71>",0.0],["<unused_72>",0.0],["<unused_73>",0.0],["<unused_74>",0.0],["<unused_75>",0.0],["<unused_76>",0.0],["<unused_77>",0.0],["<unused_78>",0.0],["<unused_79>",0.0],["<unused_80>",0.0],["<unused_81>",0.0],["<unused_82>",0.0],["<unused_83>",0.0],["<unused_84>",0.0],["<unused_85>",0.0],["<unused_86>",0.0],["<unused_87>",0.0],["<unused_88>",0.0],["<unused_89>",0.0],["<unused_90>",0.0],["<unused_91>",0.0],["<unused_92>",0.0],["<unused_93>",0.0],["<unused_94>",0.0],["<unused_95>",0.0],["<unused_96>",0.0],["<unused_97>",0.0],["<unused_98>",0.0],["<unk>",0.0],["!",0.0],["\"",0.0],["#",0.0],["$",0.0],["%",0.0],["&",0.0],["'",0.0],["(",0.0],[")",0.0],["*",0.0],["+",0.0],[",",0.0],["-",0.0],[".",0.0],["/",0.0],["0",0.0],["1",0.0],["2",0.0],["3",0.0],["4",0.0],["5",0.0],["6",0.0],["7",0.0],["8",0.0],["9",0.0],[":",0.0],[";",0.0],["<",0.0],["=",0.0],[">",0.0],["?",0.0],["@",0.0],["A",0.0],["B",0.0],["C",0.0],["D",0.0],["E",0.0],["F",0.0],["G",0.0],["H",0.0],["I",0.0],["J",0.0],["K",0.0],["L",0.0],["M",0.0],["N",0.0],["O",0.0],["P",0.0],["Q",0.0],["R",0.0],["S",0.0],["T",0.0],["U",0.0],["V",0.0],["W",0.0],["X",0.0],["Y",0.0],["Z",0.0],["[",0.0],["\\",0.0],["]",0.0],["^",0.0],["_",0.0],["`",0.0],["a",0.0],["b",0.0],["c",0.0],["d",0.0],["e",0.0],["f",0.0],["g",0.0],["h",0.0],["i",0.0],["j",0.0],["k",0.0],["l",0.0],["m",0.0],["n",0.0],["o",0.0],["p",0.0],["q",0.0],["r",0.0],["s",0.0],["t",0.0],["u",0.0],["v",0.0],["w",0.0],["x",0.0],["y",0.0],["z",0.0],["{",0.0],["|",0.0],["}",0.0],["~",0.0],["¡",0.0],["¢",0.0],["£",0.0],["¤",0.0],["¥",0.0],["¦",0.0],["§",0.0],["¨",0.0],["©",0.0],["ª",0.0],["«",0.0],["¬",0.0],["®",0.0],["¯",0.0],["°",0.0],["±",0.0],["²",0.0],["³",0.0],["´",0.0],["µ",0.0],["¶",0.0],["·",0.0],["¸",0.0],["¹",0.0],["º",0.0],["»",0.0],["¼",0.0],["½",0.0],["¾",0.0],["¿",0.0],["À",0.0],["Á",0.0],["Â",0.0],["Ã",0.0],["Ä",0.0],["Å",0.0],["Æ",0.0],["Ç",0.0],["È",0.0],["É",0.0],["Ê",0.0],["Ë",0.0],["Ì",0.0],["Í",0.0],["Î",0.0],["Ï",0.0],["Ð",0.0],["Ñ",0.0],["Ò",0.0],["Ó",0.0],["Ô",0.0],["Õ",0.0],["Ö",0.0],["×",0.0],["Ø",0.0],["Ù",0.0],["Ú",0.0],["Û",0.0],["Ü",0.0],["Ý",0.0],["Þ",0.0],["ß",0.0],["à",0.0],["á",0.0],["â",0.0],["ã",0.0],["ä",0.0],["å",0.0],["æ",0.0],["ç",0.0],["è",0.0],["é",0.0],["ê",0.0],["ë",0.0],["ì",0.0],["í",0.0],["î",0.0],["ï",0.0],["ð",0.0],["ñ",0.0],["ò",0.0],["ó",0.0],["ô",0.0],["õ",0.0],["ö",0.0],["÷",0.0],["ø",0.0],["ù",0.0],["ú",0.0],["û",0.0],["ü",0.0],["ý",0.0],["þ",0.0],["ÿ",0.0],["Ā",0.0],["ā",0.0],["Ă",0.0],["ă",0.0],["Ą",0.0],["ą",0.0],["Ć",0.0],["ć",0.0],["Ĉ",0.0],["ĉ",0.0],["Ċ",0.0],["ċ",0.0],["Č",0.0],["č",0.0],["Ď",0.0],["ď",0.0],["Đ",0.0],["đ",0.0],["Ē",0.0],["ē",0.0],["Ĕ",0.0],["ĕ",0.0],["Ė",0.0],["ė",0.0],["Ę",0.0],["ę",0.0],["Ě",0.0],["ě",0.0],["Ĝ",0.0],["ĝ",0.0],["Ğ",0.0],["ğ",0.0],["▁",0.0],["ġ",0.0],["Ģ",0.0],["ģ",0.0],["Ĥ",0.0],["ĥ",0.0],["Ħ",0.0],["ħ",0.0],["Ĩ",0.0],["ĩ",0.0],["Ī",0.0],["ī",0.0],["Ĭ",0.0],["ĭ",0.0],["Į",0.0],["į",0.0],["İ",0.0],["ı",0.0],["Ĳ",0.0],["ĳ",0.0],["Ĵ",0.0],["ĵ",0.0],["Ķ",0.0],["ķ",0.0],["ĸ",0.0],["Ĺ",0.0],["ĺ",0.0],["Ļ",0.0],["ļ",0.0],["Ľ",0.0],["ľ",0.0],["Ŀ",0.0],["ŀ",0.0],["Ł",0.0],["ł",0.0],["Ń",0.0],["▁t",0.0],["▁a",0.0],["he",0.0],["in",0.0],["re",0.0],["on",0.0],["▁the",0.0],["er",0.0],["▁s",0.0],["at",0.0],["▁w",0.0],["▁o",0.0],["en",0.0],["▁c",0.0],["it",0.0],["is",0.0],["an",0.0],["or",0.0],["es",0.0],["▁b",0.0],["ed",0.0],["▁f",0.0],["ing",0.0],["▁p",0.0],["ou",0.0],["▁an",0.0],["al",0.0],["ar",0.0],["▁to",0.0],["▁m",0.0],["▁of",0.0],["▁in",0.0],["▁d",0.0],["▁h",0.0],["▁and",0.0],["ic",0.0],["as",0.0],["le",0.0],["▁th",0.0],["ion",0.0],["om",0.0],["ll",0.0],["ent",0.0],["▁n",0.0],["▁l",0.0],["st",0.0],["▁re",0.0],["ve",0.0],["▁e",0.0],["ro",0.0],["ly",0.0],["▁be",0.0],["▁g",0.0],["▁T",0.0],["ct",0.0],["▁S",0.0],["id",0.0],["ot",0.0],["▁I",0.0],["ut",0.0],["et",0.0],["▁A",0.0],["▁is",0.0],["▁on",0.0],["im",0.0],["am",0.0],["ow",0.0],["ay",0.0],["ad",0.0],["se",0.0],["▁that",0.0],["▁C",0.0],["ig",0.0],["▁for",0.0],["ac",0.0],["▁y",0.0],["ver",0.0],["ur",0.0],["▁u",0.0],["ld",0.0],["▁st",0.0],["▁M",0.0],["'s",0.0],["▁he",0.0],["▁it",0.0],["ation",0.0],["ith",0.0],["ir",0.0],["ce",0.0],["▁you",0.0],["il",0.0],["▁B",0.0],["▁wh",0.0],["ol",0.0],["▁P",0.0],["▁with",0.0],["▁1",0.0],["ter",0.0],["ch",0.0],["▁as",0.0],["▁we",0.0],["▁(",0.0],["nd",0.0],["ill",0.0],["▁D",0.0],["if",0.0],["▁2",0.0],["ag",0.0],["ers",0.0],["ke",0.0],["▁\"",0.0],["▁H",0.0],["em",0.0],["▁con",0.0],["▁W",0.0],["▁R",0.0],["her",0.0],["▁was",0.0],["▁r",0.0],["od",0.0],["▁F",0.0],["ul",0.0],["ate",0.0],["▁at",0.0],["ri",0.0],["pp",0.0],["ore",0.0],["▁The",0.0],["▁se",0.0],["us",0.0],["▁pro",0.0],["▁ha",0.0],["um",0.0],["▁are",0.0],["▁de",0.0],["ain",0.0],["and",0.0],["▁or",0.0],["igh",0.0],["est",0.0],["ist",0.0],["ab",0.0],["rom",0.0],["▁N",0.0],["th",0.0],["▁com",0.0],["▁G",0.0],["un",0.0],["op",0.0],["00",0.0],["▁L",0.0],["▁not",0.0],["ess",0.0],["▁ex",0.0],["▁v",0.0],["res",0.0],["▁E",0.0],["ew",0.0],["ity",0.0],["ant",0.0],["▁by",0.0],["el",0.0],["os",0.0],["ort",0.0],["oc",0.0],["qu",0.0],["▁from",0.0],["▁have",0.0],["▁su",0.0],["ive",0.0],["ould",0.0],["▁sh",0.0],["▁this",0.0],["nt",0.0],["ra",0.0],["pe",0.0],["ight",0.0],["art",0.0],["ment",0.0],["▁al",0.0],["ust",0.0],["end",0.0],["--",0.0],["all",0.0],["▁O",0.0],["ack",0.0],["▁ch",0.0],["▁le",0.0],["ies",0.0],["red",0.0],["ard",0.0],["âĢ",0.0],["out",0.0],["▁J",0.0],["▁ab",0.0],["ear",0.0],["iv",0.0],["ally",0.0],["our",0.0],["ost",0.0],["gh",0.0],["pt",0.0],["▁pl",0.0],["ast",0.0],["▁can",0.0],["ak",0.0],["ome",0.0],["ud",0.0],["The",0.0],["▁his",0.0],["▁do",0.0],["▁go",0.0],["▁has",0.0],["ge",0.0],["'t",0.0],["▁U",0.0],["rou",0.0],["▁sa",0.0],["▁j",0.0],["▁but",0.0],["▁wor",0.0],["▁all",0.0],["ect",0.0],["▁k",0.0],["ame",0.0],["▁will",0.0],["ok",0.0],["▁whe",0.0],["▁they",0.0],["ide",0.0],["01",0.0],["ff",0.0],["ich",0.0],["pl",0.0],["ther",0.0],["▁tr",0.0],["..",0.0],["▁int",0.0],["ie",0.0],["ure",0.0],["age",0.0],["▁ne",0.0],["ial",0.0],["ap",0.0],["ine",0.0],["ice",0.0],["▁me",0.0],["▁out",0.0],["ans",0.0],["one",0.0],["ong",0.0],["ions",0.0],["▁who",0.0],["▁K",0.0],["▁up",0.0],["▁their",0.0],["▁ad",0.0],["▁3",0.0],["▁us",0.0],["ated",0.0],["ous",0.0],["▁more",0.0],["ue",0.0],["og",0.0],["▁St",0.0],["ind",0.0],["ike",0.0],["▁so",0.0],["ime",0.0],["per",0.0],[".\"",0.0],["ber",0.0],["iz",0.0],["act",0.0],["▁one",0.0],["▁said",0.0],["▁-",0.0],["are",0.0],["▁your",0.0],["cc",0.0],["▁Th",0.0],["▁cl",0.0],["ep",0.0],["ake",0.0],["able",0.0],["ip",0.0],["▁cont",0.0],["▁which",0.0],["ia",0.0],["▁im",0.0],["▁about",0.0],["▁were",0.0],["very",0.0],["ub",0.0],["▁had",0.0],["▁en",0.0],["▁comp",0.0],[",\"",0.0],["▁In",0.0],["▁un",0.0],["▁ag",0.0],["ire",0.0],["ace",0.0],["au",0.0],["ary",0.0],["▁would",0.0],["ass",0.0],["ry",0.0],["▁âĢ",0.0],["cl",0.0],["ook",0.0],["ere",0.0],["so",0.0],["▁V",0.0],["ign",0.0],["ib",0.0],["▁off",0.0],["▁te",0.0],["ven",0.0],["▁Y",0.0],["ile",0.0],["ose",0.0],["ite",0.0],["orm",0.0],["▁201",0.0],["▁res",0.0],["▁man",0.0],["▁per",0.0],["▁other",0.0],["ord",0.0],["ult",0.0],["▁been",0.0],["▁like",0.0],["ase",0.0],["ance",0.0],["ks",0.0],["ays",0.0],["own",0.0],["ence",0.0],["▁dis",0.0],["ction",0.0],["▁any",0.0],["▁app",0.0],["▁sp",0.0],["int",0.0],["ress",0.0],["ations",0.0],["ail",0.0],["▁4",0.0],["ical",0.0],["▁them",0.0],["▁her",0.0],["ount",0.0],["▁Ch",0.0],["▁ar",0.0],["▁if",0.0],["▁there",0.0],["▁pe",0.0],["▁year",0.0],["av",0.0],["▁my",0.0],["▁some",0.0],["▁when",0.0],["ough",0.0],["ach",0.0],["▁than",0.0],["ru",0.0],["ond",0.0],["ick",0.0],["▁over",0.0],["vel",0.0],["▁qu",0.0],["ĊĊ",0.0],["▁sc",0.0],["reat",0.0],["ree",0.0],["▁It",0.0],["ound",0.0],["port",0.0],["▁also",0.0],["▁part",0.0],["fter",0.0],["▁kn",0.0],["▁bec",0.0],["▁time",0.0],["ens",0.0],["▁5",0.0],["ople",0.0],["▁what",0.0],["▁no",0.0],["du",0.0],["mer",0.0],["ang",0.0],["▁new",0.0],["----",0.0],["▁get",0.0],["ory",0.0],["ition",0.0],["ings",0.0],["▁just",0.0],["▁into",0.0],["▁0",0.0],["ents",0.0],["ove",0.0],["te",0.0],["▁people",0.0],["▁pre",0.0],["▁its",0.0],["▁rec",0.0],["▁tw",0.0],["ian",0.0],["irst",0.0],["ark",0.0],["ors",0.0],["▁work",0.0],["ade",0.0],["ob",0.0],["▁she",0.0],["▁our",0.0],["wn",0.0],["ink",0.0],["lic",0.0],["▁19",0.0],["▁He",0.0],["ish",0.0],["nder",0.0],["ause",0.0],["▁him",0.0],["ons",0.0],["▁[",0.0],["▁ro",0.0],["form",0.0],["ild",0.0],["ates",0.0],["vers",0.0],["▁only",0.0],["oll",0.0],["▁spe",0.0],["ck",0.0],["ell",0.0],["amp",0.0],["▁acc",0.0],["▁bl",0.0],["ious",0.0],["urn",0.0],["ft",0.0],["ood",0.0],["▁how",0.0],["hed",0.0],["▁'",0.0],["▁after",0.0],["aw",0.0],["▁att",0.0],["ov",0.0],["ne",0.0],["▁play",0.0],["erv",0.0],["ict",0.0],["▁could",0.0],["itt",0.0],["▁am",0.0],["▁first",0.0],["▁6",0.0],["▁act",0.0],["▁$",0.0],["ec",0.0],["hing",0.0],["ual",0.0],["ull",0.0],["▁comm",0.0],["oy",0.0],["old",0.0],["ces",0.0],["ater",0.0],["▁fe",0.0],["▁bet",0.0],["we",0.0],["iff",0.0],["▁two",0.0],["ock",0.0],["▁back",0.0],[").",0.0],["ident",0.0],["▁under",0.0],["rough",0.0],["sel",0.0],["xt",0.0],["▁may",0.0],["round",0.0],["▁po",0.0],["ph",0.0],["iss",0.0],["▁des",0.0],["▁most",0.0],["▁did",0.0],["▁add",0.0],["ject",0.0],["▁inc",0.0],["fore",0.0],["▁pol",0.0],["ont",0.0],["▁again",0.0],["clud",0.0],["tern",0.0],["▁know",0.0],["▁need",0.0],["▁cons",0.0],["▁co",0.0],["▁.",0.0],["▁want",0.0],["▁see",0.0],["▁7",0.0],["ning",0.0],["iew",0.0],["▁This",0.0],["ced",0.0],["▁even",0.0],["▁ind",0.0],["ty",0.0],["▁We",0.0],["ath",0.0],["▁these",0.0],["▁pr",0.0],["▁use",0.0],["▁because",0.0],["▁fl",0.0],["ng",0.0],["▁now",0.0],["▁âĢĵ",0.0],["com",0.0],["ise",0.0],["▁make",0.0],["▁then",0.0],["ower",0.0],["▁every",0.0],["▁Un",0.0],["▁sec",0.0],["oss",0.0],["uch",0.0],["▁em",0.0],["▁=",0.0],["▁Re",0.0],["ied",0.0],["rit",0.0],["▁inv",0.0],["lect",0.0],["▁supp",0.0],["ating",0.0],["▁look",0.0],["man",0.0],["pect",0.0],["▁8",0.0],["row",0.0],["▁bu",0.0],["▁where",0.0],["ific",0.0],["▁years",0.0],["ily",0.0],["▁diff",0.0],["▁should",0.0],["▁rem",0.0],["Th",0.0],["In",0.0],["▁ev",0.0],["day",0.0],["'re",0.0],["rib",0.0],["▁rel",0.0],["ss",0.0],["▁def",0.0],["▁right",0.0],["▁sy",0.0],["),",0.0],["les",0.0],["000",0.0],["hen",0.0],["▁through",0.0],["▁Tr",0.0],["__",0.0],["▁way",0.0],["▁don",0.0],["▁,",0.0],["▁10",0.0],["ased",0.0],["▁ass",0.0],["ublic",0.0],["▁reg",0.0],["▁And",0.0],["ix",0.0],["▁very",0.0],["▁includ",0.0],["other",0.0],["▁imp",0.0],["oth",0.0],["▁sub",0.0],["▁âĢĶ",0.0],["▁being",0.0],["arg",0.0],["▁Wh",0.0],["==",0.0],["ible",0.0],["▁does",0.0],["ange",0.0],["ram",0.0],["▁9",0.0],["ert",0.0],["ps",0.0],["ited",0.0],["ational",0.0],["▁br",0.0],["▁down",0.0],["▁many",0.0],["aking",0.0],["▁call",0.0],["uring",0.0],["ities",0.0],["▁ph",0.0],["ics",0.0],["als",0.0],["▁dec",0.0],["ative",0.0],["ener",0.0],["▁before",0.0],["ility",0.0],["▁well",0.0],["▁much",0.0],["erson",0.0],["▁those",0.0],["▁such",0.0],["▁ke",0.0],["▁end",0.0],["▁But",0.0],["ason",0.0],["ting",0.0],["▁long",0.0],["ef",0.0],["▁think",0.0],["ys",0.0],["▁bel",0.0],["▁sm",0.0],["its",0.0],["ax",0.0],["▁own",0.0],["▁prov",0.0],["▁set",0.0],["ife",0.0],["ments",0.0],["ble",0.0],["ward",0.0],["▁show",0.0],["▁pres",0.0],["ms",0.0],["omet",0.0],["▁ob",0.0],["▁say",0.0],["▁Sh",0.0],["ts",0.0],["ful",0.0],["▁eff",0.0],["▁gu",0.0],["▁inst",0.0],["und",0.0],["ren",0.0],["cess",0.0],["▁ent",0.0],["▁You",0.0],["▁good",0.0],["▁start",0.0],["ince",0.0],["▁made",0.0],["tt",0.0],["stem",0.0],["olog",0.0],["up",0.0],["▁|",0.0],["ump",0.0],["▁hel",0.0],["vern",0.0],["ular",0.0],["ually",0.0],["▁ac",0.0],["▁mon",0.0],["▁last",0.0],["▁200",0.0],["10",0.0],["▁stud",0.0],["ures",0.0],["▁Ar",0.0],["self",0.0],["ars",0.0],["meric",0.0],["ues",0.0],["cy",0.0],["▁min",0.0],["ollow",0.0],["▁col",0.0],["io",0.0],["▁mod",0.0],["▁count",0.0],["▁Com",0.0],["hes",0.0],["▁fin",0.0],["air",0.0],["ier",0.0],["âĢĶ",0.0],["read",0.0],["ank",0.0],["atch",0.0],["ever",0.0],["▁str",0.0],["▁point",0.0],["ork",0.0],["▁New",0.0],["▁sur",0.0],["ool",0.0],["alk",0.0],["ement",0.0],["▁used",0.0],["ract",0.0],["ween",0.0],["▁same",0.0],["oun",0.0],["▁Al",0.0],["ci",0.0],["▁differe",0.0],["▁while",0.0],["--------",0.0],["▁game",0.0],["cept",0.0],["▁sim",0.0],["...",0.0],["▁inter",0.0],["ek",0.0],["▁report",0.0],["▁produ",0.0],["▁still",0.0],["led",0.0],["ah",0.0],["▁here",0.0],["▁world",0.0],["▁though",0.0],["▁num",0.0],["arch",0.0],["imes",0.0],["ale",0.0],["▁Se",0.0],["▁If",0.0],["//",0.0],["▁Le",0.0],["▁ret",0.0],["▁ref",0.0],["▁trans",0.0],["ner",0.0],["ution",0.0],["ters",0.0],["▁take",0.0],["▁Cl",0.0],["▁conf",0.0],["way",0.0],["ave",0.0],["▁going",0.0],["▁sl",0.0],["ug",0.0],["▁Americ",0.0],["▁spec",0.0],["▁hand",0.0],["▁between",0.0],["ists",0.0],["▁De",0.0],["oot",0.0],["It",0.0],["▁ear",0.0],["▁against",0.0],["▁high",0.0],["gan",0.0],["az",0.0],["ather",0.0],["▁exp",0.0],["▁op",0.0],["▁ins",0.0],["▁gr",0.0],["▁help",0.0],["▁requ",0.0],["ets",0.0],["ins",0.0],["▁Pro",0.0],["ism",0.0],["▁found",0.0],["land",0.0],["ata",0.0],["uss",0.0],["ames",0.0],["▁person",0.0],["▁great",0.0],["pr",0.0],["▁sign",0.0],["▁An",0.0],["'ve",0.0],["▁somet",0.0],["▁ser",0.0],["hip",0.0],["▁run",0.0],["▁:",0.0],["▁ter",0.0],["irect",0.0],["▁follow",0.0],["▁det",0.0],["ices",0.0],["▁find",0.0],["12",0.0],["▁mem",0.0],["▁cr",0.0],["ered",0.0],["ex",0.0],["▁ext",0.0],["uth",0.0],["ense",0.0],["co",0.0],["▁team",0.0],["ving",0.0],["ouse",0.0],["ash",0.0],["att",0.0],["ved",0.0],["▁system",0.0],["▁As",0.0],["der",0.0],["ives",0.0],["min",0.0],["▁lead",0.0],["▁Bl",0.0],["cent",0.0],["▁around",0.0],["▁govern",0.0],["▁cur",0.0],["velop",0.0],["any",0.0],["▁cour",0.0],["alth",0.0],["ages",0.0],["ize",0.0],["▁car",0.0],["ode",0.0],["▁law",0.0],["▁read",0.0],["'m",0.0],["con",0.0],["▁real",0.0],["▁support",0.0],["▁12",0.0],["....",0.0],["▁really",0.0],["ness",0.0],["▁fact",0.0],["▁day",0.0],["▁both",0.0],["ying",0.0],["▁serv",0.0],["▁For",0.0],["▁three",0.0],["▁wom",0.0],["▁med",0.0],["ody",0.0],["▁They",0.0],["50",0.0],["▁exper",0.0],["ton",0.0],["▁each",0.0],["akes",0.0],["▁che",0.0],["▁cre",0.0],["ines",0.0],["▁rep",0.0],["19",0.0],["gg",0.0],["illion",0.0],["▁grou",0.0],["ute",0.0],["ik",0.0],["We",0.0],["get",0.0],["ER",0.0],["▁met",0.0],["▁says",0.0],["ox",0.0],["▁during",0.0],["ern",0.0],["ized",0.0],["ared",0.0],["▁fam",0.0],["ically",0.0],["▁happ",0.0],["▁Is",0.0],["▁char",0.0],["med",0.0],["vent",0.0],["▁gener",0.0],["ient",0.0],["ple",0.0],["iet",0.0],["rent",0.0],["11",0.0],["ves",0.0],["ption",0.0],["▁20",0.0],["formation",0.0],["▁cor",0.0],["▁offic",0.0],["ield",0.0],["▁too",0.0],["ision",0.0],["▁inf",0.0],["▁Z",0.0],["the",0.0],["oad",0.0],["▁public",0.0],["▁prog",0.0],["ric",0.0],["**",0.0],["▁war",0.0],["▁power",0.0],["view",0.0],["▁few",0.0],["▁loc",0.0],["▁different",0.0],["▁state",0.0],["▁head",0.0],["'ll",0.0],["▁poss",0.0],["▁stat",0.0],["ret",0.0],["ants",0.0],["▁val",0.0],["▁iss",0.0],["▁cle",0.0],["ivers",0.0],["anc",0.0],["▁expl",0.0],["▁another",0.0],["▁Q",0.0],["▁av",0.0],["thing",0.0],["nce",0.0],["Wh",0.0],["▁child",0.0],["▁since",0.0],["ired",0.0],["less",0.0],["▁life",0.0],["▁develop",0.0],["ittle",0.0],["▁dep",0.0],["▁pass",0.0],["ãĥ",0.0],["▁turn",0.0],["orn",0.0],["This",0.0],["bers",0.0],["ross",0.0],["▁Ad",0.0],["▁fr",0.0],["▁resp",0.0],["▁second",0.0],["oh",0.0],["▁/",0.0],["▁disc",0.0],["▁&",0.0],["▁something",0.0],["▁comple",0.0],["▁ed",0.0],["▁fil",0.0],["▁month",0.0],["aj",0.0],["uc",0.0],["▁government",0.0],["▁without",0.0],["▁leg",0.0],["▁dist",0.0],["▁put",0.0],["▁quest",0.0],["ann",0.0],["▁prot",0.0],["20",0.0],["▁never",0.0],["ience",0.0],["▁level",0.0],["▁art",0.0],["▁things",0.0],["▁might",0.0],["▁effect",0.0],["▁contro",0.0],["▁cent",0.0],["▁18",0.0],["▁allow",0.0],["▁belie",0.0],["chool",0.0],["ott",0.0],["▁incre",0.0],["▁feel",0.0],["▁result",0.0],["▁lot",0.0],["▁fun",0.0],["ote",0.0],["▁ty",0.0],["erest",0.0],["▁contin",0.0],["▁using",0.0],["▁big",0.0],["201",0.0],["▁ask",0.0],["▁best",0.0],["▁)",0.0],["IN",0.0],["▁opp",0.0],["30",0.0],["▁number",0.0],["iness",0.0],["St",0.0],["lease",0.0],["▁ca",0.0],["▁must",0.0],["▁direct",0.0],["▁gl",0.0],["▁<",0.0],["▁open",0.0],["▁post",0.0],["▁come",0.0],["▁seem",0.0],["ording",0.0],["▁week",0.0],["ately",0.0],["ital",0.0],["▁el",0.0],["riend",0.0],["▁far",0.0],["▁tra",0.0],["inal",0.0],["▁pri",0.0],["▁US",0.0],["▁place",0.0],["▁form",0.0],["▁told",0.0],["\":",0.0],["ains",0.0],["ature",0.0],["▁Trump",0.0],["▁stand",0.0],["▁#",0.0],["ider",0.0],["▁Fr",0.0],["▁next",0.0],["▁soc",0.0],["▁pur",0.0],["▁let",0.0],["▁little",0.0],["▁hum",0.0],["▁i",0.0],["ron",0.0],["15",0.0],["▁15",0.0],["▁commun",0.0],["▁mark",0.0],["▁There",0.0],["▁wr",0.0],["▁That",0.0],["▁information",0.0],["ways",0.0],["▁bus",0.0],["app",0.0],["▁invest",0.0],["me",0.0],["▁hard",0.0],["ained",0.0],["ead",0.0],["▁import",0.0],["▁appro",0.0],["▁test",0.0],["▁tri",0.0],["▁rest",0.0],["osed",0.0],["▁full",0.0],["▁care",0.0],["▁Sp",0.0],["▁case",0.0],["ON",0.0],["▁sk",0.0],["▁less",0.0],["▁+",0.0],["▁partic",0.0],["▁Pl",0.0],["ably",0.0],["uck",0.0],["ished",0.0],["chn",0.0],["be",0.0],["▁list",0.0],["ator",0.0],["▁top",0.0],["▁adv",0.0],["▁Be",0.0],["ruct",0.0],["▁dem",0.0],["ration",0.0],["ling",0.0],["gy",0.0],["reen",0.0],["ger",0.0],["▁home",0.0],["▁left",0.0],["▁better",0.0],["▁data",0.0],["▁11",0.0],["▁attack",0.0],["▁proble",0.0],["line",0.0],["ards",0.0],["▁beh",0.0],["ral",0.0],["▁How",0.0],["▁She",0.0],["arge",0.0],["▁--",0.0],["://",0.0],["▁bro",0.0],["▁Ph",0.0],["ats",0.0],["▁build",0.0],["ww",0.0],["ided",0.0],["aim",0.0],["ases",0.0],["ency",0.0],["▁main",0.0],["ined",0.0],["▁including",0.0],["▁{",0.0],["▁got",0.0],["▁interest",0.0],["▁keep",0.0],["▁X",0.0],["▁eas",0.0],["aining",0.0],["▁class",0.0],["âĢ¦",0.0],["▁No",0.0],["▁var",0.0],["▁small",0.0],["ample",0.0],["AT",0.0],["▁ide",0.0],["▁So",0.0],["▁rece",0.0],["▁polit",0.0],["▁mov",0.0],["▁plan",0.0],["▁percent",0.0],["iving",0.0],["▁camp",0.0],["▁pay",0.0],["14",0.0],["sc",0.0],["ised",0.0],["▁unt",0.0],["oney",0.0],["ploy",0.0],["====",0.0],["▁didn",0.0],["▁Ind",0.0],["els",0.0],["ertain",0.0],["▁pos",0.0],["____",0.0],["iver",0.0],["▁process",0.0],["▁program",0.0],["ified",0.0],["▁Rep",0.0],["16",0.0],["uro",0.0],["ology",0.0],["atter",0.0],["ina",0.0],["▁name",0.0],["▁All",0.0],["▁four",0.0],["▁return",0.0],["vious",0.0],["bs",0.0],["▁called",0.0],["▁move",0.0],["▁Sc",0.0],["ird",0.0],["▁group",0.0],["▁bre",0.0],["▁men",0.0],["▁cap",0.0],["ten",0.0],["ee",0.0],["▁dri",0.0],["leg",0.0],["here",0.0],["uthor",0.0],["▁pat",0.0],["▁current",0.0],["ides",0.0],["▁pop",0.0],["to",0.0],["ention",0.0],["▁always",0.0],["▁mil",0.0],["▁women",0.0],["▁16",0.0],["▁old",0.0],["iven",0.0],["raph",0.0],["▁Or",0.0],["ror",0.0],["ently",0.0],["▁near",0.0],["▁Ex",0.0],["ream",0.0],["sh",0.0],["▁14",0.0],["▁free",0.0],["ission",0.0],["stand",0.0],["▁Con",0.0],["ality",0.0],["used",0.0],["13",0.0],["▁design",0.0],["▁change",0.0],["▁chang",0.0],["▁bo",0.0],["▁vis",0.0],["ember",0.0],["▁book",0.0],["ready",0.0],["▁kill",0.0],["25",0.0],["pped",0.0],["▁away",0.0],["▁able",0.0],["▁country",0.0],["▁const",0.0],["arn",0.0],["▁order",0.0],["AR",0.0],["ior",0.0],["ium",0.0],["orth",0.0],["18",0.0],["ailable",0.0],["▁sw",0.0],["▁million",0.0],["▁13",0.0],["atic",0.0],["ted",0.0],["▁Go",0.0],["▁oper",0.0],["eng",0.0],["▁thing",0.0],["ajor",0.0],["conom",0.0],["▁Comm",0.0],["▁why",0.0],["ured",0.0],["ural",0.0],["▁school",0.0],["by",0.0],["▁Mar",0.0],["▁aff",0.0],["▁days",0.0],["▁ann",0.0],["ush",0.0],["ane",0.0],["If",0.0],["eg",0.0],["▁prof",0.0],["▁health",0.0],["outh",0.0],["But",0.0],["ional",0.0],[".,",0.0],["▁sol",0.0],["▁already",0.0],["▁30",0.0],["▁charact",0.0],["He",0.0],["▁friend",0.0],["ES",0.0],["ians",0.0],["icle",0.0],["'d",0.0],["▁On",0.0],["▁least",0.0],["▁prom",0.0],["▁dr",0.0],["▁hist",0.0],["ither",0.0],["▁est",0.0],["iqu",0.0],["17",0.0],["son",0.0],["▁tell",0.0],["▁talk",0.0],["ohn",0.0],["oint",0.0],["lection",0.0],["AN",0.0],["▁until",0.0],["augh",0.0],["▁later",0.0],["▁ve",0.0],["▁view",0.0],["ending",0.0],["ived",0.0],["▁word",0.0],["ware",0.0],["▁cost",0.0],["▁enough",0.0],["▁give",0.0],["▁United",0.0],["▁techn",0.0],["arent",0.0],["OR",0.0],["▁par",0.0],["▁Dr",0.0],["▁2016",0.0],["rist",0.0],["ering",0.0],["▁Â",0.0],["▁large",0.0],["side",0.0],["acy",0.0],["ccess",0.0],["▁win",0.0],["▁important",0.0],["▁199",0.0],["▁doesn",0.0],["▁17",0.0],["▁business",0.0],["▁clear",0.0],["▁rese",0.0],["\",",0.0],["ury",0.0],["▁equ",0.0],["aster",0.0],["alf",0.0],["▁American",0.0],["nect",0.0],["▁expect",0.0],["iversity",0.0],["▁occ",0.0],["▁Fl",0.0],["▁kind",0.0],["▁mean",0.0],["▁past",0.0],["▁dev",0.0],["▁bas",0.0],["let",0.0],["raft",0.0],["▁organ",0.0],["▁del",0.0],["▁perform",0.0],["▁story",0.0],["▁season",0.0],["▁Col",0.0],["▁claim",0.0],["▁came",0.0],["▁within",0.0],["▁line",0.0],["▁project",0.0],["▁At",0.0],["▁control",0.0],["ended",0.0],["▁Sy",0.0],["▁air",0.0],["ization",0.0],["▁*",0.0],["ley",0.0],["▁money",0.0],["idd",0.0],["You",0.0],["for",0.0],["▁family",0.0],["▁making",0.0],["▁bit",0.0],["▁police",0.0],["▁happen",0.0],["▁vers",0.0],["ony",0.0],["uff",0.0],["▁When",0.0],["▁sit",0.0],["ideo",0.0],["lf",0.0],["ison",0.0],["▁sure",0.0],["gin",0.0],["▁appear",0.0],["▁light",0.0],["▁es",0.0],["of",0.0],["▁water",0.0],["▁times",0.0],["not",0.0],["▁grow",0.0],["▁company",0.0],["▁Te",0.0],["ows",0.0],["▁mar",0.0],["ource",0.0],["iol",0.0],["arm",0.0],["br",0.0],["▁example",0.0],["▁conc",0.0],["▁fore",0.0],["▁To",0.0],["pro",0.0],["EN",0.0],["ries",0.0],["▁25",0.0],["▁Can",0.0],["ney",0.0],["▁actually",0.0],["▁ever",0.0],["urity",0.0],["aken",0.0],["aps",0.0],["▁tax",0.0],["▁major",0.0],["ama",0.0],["▁often",0.0],["eral",0.0],["▁human",0.0],["▁job",0.0],["ister",0.0],["▁available",0.0],["ocr",0.0],["enn",0.0],["aid",0.0],["ivid",0.0],["▁record",0.0],["?\"",0.0],["▁sing",0.0],["▁Am",0.0],["idence",0.0],["▁news",0.0],["ster",0.0],["▁econom",0.0],["▁following",0.0],["▁Br",0.0],["ising",0.0],["▁hour",0.0],["most",0.0],["ument",0.0],["▁sex",0.0],["▁desc",0.0],["▁become",0.0],["▁Ed",0.0],["▁took",0.0],["▁having",0.0],["▁product",0.0],["ault",0.0],["As",0.0],["aring",0.0],["▁means",0.0],["▁hop",0.0],["une",0.0],["▁cho",0.0],["▁certain",0.0],["▁non",0.0],["▁deal",0.0],["24",0.0],["lement",0.0],["oci",0.0],["ene",0.0],["▁side",0.0],["▁Pr",0.0],["▁May",0.0],["▁reason",0.0],["ued",0.0],["ched",0.0],["ulation",0.0],["▁elect",0.0],["▁official",0.0],["▁possible",0.0],["▁hold",0.0],["ands",0.0],["ots",0.0],["▁city",0.0],["ories",0.0],["▁sever",0.0],["▁children",0.0],["▁once",0.0],["▁activ",0.0],["ler",0.0],["▁night",0.0],["itions",0.0],["▁John",0.0],["ape",0.0],["play",0.0],["▁done",0.0],["▁lim",0.0],["▁working",0.0],["▁Pres",0.0],["orld",0.0],["eb",0.0],["▁Co",0.0],["▁body",0.0],["ails",0.0],["utes",0.0],["▁Mr",0.0],["▁whether",0.0],["▁author",0.0],["rop",0.0],["▁proper",0.0],["▁seen",0.0],[");",0.0],["▁fac",0.0],["▁Su",0.0],["▁cond",0.0],["iting",0.0],["▁course",0.0],["▁}",0.0],["----------------",0.0],["aign",0.0],["▁event",0.0],["▁eng",0.0],["▁pot",0.0],["▁intern",0.0],["iam",0.0],["▁short",0.0],["empt",0.0],["ãĤ",0.0],["▁God",0.0],["ilar",0.0],["80",0.0],["▁orig",0.0],["IS",0.0],["ourn",0.0],["ability",0.0],["itive",0.0],["▁dam",0.0],["▁100",0.0],["▁press",0.0],["▁doing",0.0],["▁protect",0.0],["ring",0.0],["▁thought",0.0],["▁question",0.0],["rew",0.0],["▁War",0.0],["▁several",0.0],["▁State",0.0],["▁given",0.0],["▁fund",0.0],["▁Tw",0.0],["▁went",0.0],["ances",0.0],["work",0.0],["por",0.0],["my",0.0],["40",0.0],["▁arg",0.0],["artment",0.0],["ustom",0.0],["▁polic",0.0],["▁meet",0.0],["▁creat",0.0],["22",0.0],["▁States",0.0],["▁games",0.0],["raw",0.0],["uture",0.0],["▁understand",0.0],["urs",0.0],["▁Ob",0.0],["lish",0.0],["sy",0.0],["▁makes",0.0],["▁won",0.0],["agon",0.0],["▁htt",0.0],["▁love",0.0],["ential",0.0],["▁complete",0.0],["par",0.0],["▁Im",0.0],["AL",0.0],["▁account",0.0],["Âł",0.0],["ored",0.0],["vert",0.0],["▁ident",0.0],["▁2015",0.0],["▁others",0.0],["▁Min",0.0],["iber",0.0],["verage",0.0],["There",0.0],["itional",0.0],["dd",0.0],["▁prob",0.0],["▁young",0.0],["▁along",0.0],["▁according",0.0],["▁yet",0.0],["▁members",0.0],["▁What",0.0],["oid",0.0],["▁Man",0.0],["And",0.0],["▁among",0.0],["ai",0.0],["▁employ",0.0],["▁Res",0.0],["▁>",0.0],["▁invol",0.0],["▁low",0.0],["af",0.0],["▁Car",0.0],["▁hig",0.0],["▁One",0.0],["▁Sec",0.0],["ination",0.0],["▁likely",0.0],["▁ant",0.0],["aged",0.0],["▁Russ",0.0],["▁ben",0.0],["▁rele",0.0],["For",0.0],["back",0.0],["▁Not",0.0],["▁president",0.0],["ball",0.0],["▁access",0.0],["ividual",0.0],["▁Dem",0.0],["▁Euro",0.0],["60",0.0],["▁known",0.0],["irl",0.0],["▁Gr",0.0],["▁early",0.0],["use",0.0],["iety",0.0],["âĢĵ",0.0],["▁fight",0.0],["▁sent",0.0],["▁today",0.0],["▁market",0.0],["\".",0.0],["▁based",0.0],["▁strong",0.0],["urther",0.0],["▁deb",0.0],["mber",0.0],["▁problem",0.0],["▁death",0.0],["▁social",0.0],["imate",0.0],["AS",0.0],["ortun",0.0],["▁campaign",0.0],["ery",0.0],["Ch",0.0],["▁ey",0.0],["ially",0.0],["▁mus",0.0],["wh",0.0],["pos",0.0],["▁er",0.0],["▁saf",0.0],["▁months",0.0],["iron",0.0],["▁viol",0.0],["▁five",0.0],["▁stre",0.0],["▁players",0.0],["inc",0.0],["ald",0.0],["year",0.0],["aun",0.0],["▁success",0.0],["▁present",0.0],["erence",0.0],["▁2014",0.0],["▁sugg",0.0],["▁particular",0.0],["▁try",0.0],["▁suggest",0.0],["▁Christ",0.0],["ones",0.0],["▁priv",0.0],["23",0.0],["▁crit",0.0],["▁land",0.0],["▁local",0.0],["ify",0.0],["29",0.0],["▁aut",0.0],["ED",0.0],["▁Gu",0.0],["▁mult",0.0],["▁political",0.0],["▁asked",0.0],["▁former",0.0],["itter",0.0],["ript",0.0],["▁close",0.0],["▁pract",0.0],["▁York",0.0],["▁getting",0.0],["▁across",0.0],["▁comb",0.0],["▁believe",0.0],["▁z",0.0],["▁toget",0.0],["▁together",0.0],["▁Cent",0.0],["irc",0.0],["▁individual",0.0],["▁Mc",0.0],["27",0.0],["isk",0.0],["▁Eng",0.0],["▁face",0.0],["▁24",0.0],["▁value",0.0],["▁area",0.0],["ev",0.0],["▁writ",0.0],["▁President",0.0],["▁vot",0.0],["▁key",0.0],["▁mom",0.0],["put",0.0],["▁anything",0.0],["▁experience",0.0],["attle",0.0],["▁mind",0.0],["aff",0.0],["omm",0.0],["▁future",0.0],["ged",0.0],["▁cut",0.0],["▁tot",0.0],["itch",0.0],["▁video",0.0],["▁investig",0.0],["▁net",0.0],["▁My",0.0],["rict",0.0],["ien",0.0],[".)",0.0],["▁impro",0.0],["though",0.0],["wards",0.0],["▁connect",0.0],["▁Med",0.0],["selves",0.0],["ensive",0.0],["mb",0.0],["ober",0.0],["ators",0.0],["An",0.0],["▁50",0.0],["▁redu",0.0],["resent",0.0],["▁above",0.0],["▁fre",0.0],["▁Europe",0.0],["sw",0.0],["▁amount",0.0],["▁App",0.0],["▁either",0.0],["▁milit",0.0],["▁anal",0.0],["▁fail",0.0],["▁En",0.0],["ales",0.0],["▁special",0.0],["▁black",0.0],["IT",0.0],["cher",0.0],["▁looking",0.0],["▁fire",0.0],["yn",0.0],["▁almost",0.0],["oon",0.0],["▁study",0.0],["▁miss",0.0],["ches",0.0],["rown",0.0],["▁tre",0.0],["▁community",0.0],["▁media",0.0],["▁food",0.0],["▁comes",0.0],["▁University",0.0],["▁single",0.0],["What",0.0],["uly",0.0],["▁half",0.0],["ague",0.0],["hod",0.0],["▁Republic",0.0],["▁started",0.0],["▁quick",0.0],["oto",0.0],["book",0.0],["▁issue",0.0],["itor",0.0],["▁else",0.0],["▁consider",0.0],["26",0.0],["rodu",0.0],["▁taken",0.0],["28",0.0],["99",0.0],["▁With",0.0],["▁true",0.0],["▁wa",0.0],["▁trad",0.0],["▁ago",0.0],["▁mess",0.0],["ief",0.0],["▁added",0.0],["oke",0.0],["▁bad",0.0],["▁fav",0.0],["33",0.0],["▁similar",0.0],["ask",0.0],["▁Don",0.0],["▁character",0.0],["orts",0.0],["▁House",0.0],["▁reported",0.0],["▁type",0.0],["val",0.0],["iod",0.0],["▁However",0.0],["▁targ",0.0],["▁entire",0.0],["pping",0.0],["▁history",0.0],["▁live",0.0],["ffic",0.0],["........",0.0],["ederal",0.0],["▁trying",0.0],["▁discuss",0.0],["▁Har",0.0],["aces",0.0],["lished",0.0],["▁self",0.0],["osp",0.0],["rest",0.0],["▁room",0.0],["elt",0.0],["▁fall",0.0],["olution",0.0],["▁et",0.0],["▁x",0.0],["▁isn",0.0],["▁idea",0.0],["bo",0.0],["▁sound",0.0],["▁Dep",0.0],["▁someone",0.0],["cially",0.0],["ully",0.0],["▁foc",0.0],["▁object",0.0],["ift",0.0],["aper",0.0],["▁player",0.0],["▁rather",0.0],["▁service",0.0],["ashing",0.0],["▁Do",0.0],["▁Part",0.0],["rug",0.0],["mon",0.0],["ply",0.0],["▁mor",0.0],["▁nothing",0.0],["▁provide",0.0],["IC",0.0],["ung",0.0],["▁party",0.0],["▁exist",0.0],["▁mag",0.0],["70",0.0],["▁rul",0.0],["▁house",0.0],["▁behind",0.0],["▁however",0.0],["▁World",0.0],["▁sum",0.0],["▁applic",0.0],["▁;",0.0],["▁function",0.0],["gr",0.0],["▁Pol",0.0],["▁front",0.0],["200",0.0],["▁series",0.0],["▁tem",0.0],["▁typ",0.0],["ills",0.0],["▁opt",0.0],["▁points",0.0],["▁below",0.0],["itted",0.0],["▁specific",0.0],["▁2017",0.0],["umb",0.0],["▁ra",0.0],["▁previous",0.0],["▁pret",0.0],["reme",0.0],["▁custom",0.0],["▁court",0.0],["▁Me",0.0],["▁repl",0.0],["▁whole",0.0],["go",0.0],["cer",0.0],["▁treat",0.0],["▁Act",0.0],["▁probably",0.0],["▁learn",0.0],["ender",0.0],["▁Ass",0.0],["▁version",0.0],["now",0.0],["▁check",0.0],["▁Cal",0.0],["RE",0.0],["minist",0.0],["On",0.0],["ources",0.0],["▁benef",0.0],["▁doc",0.0],["▁deter",0.0],["▁enc",0.0],["▁super",0.0],["▁address",0.0],["▁vict",0.0],["▁2013",0.0],["▁meas",0.0],["tr",0.0],["▁field",0.0],["When",0.0],["▁signific",0.0],["uge",0.0],["▁feat",0.0],["▁common",0.0],["load",0.0],["▁begin",0.0],["▁bring",0.0],["▁action",0.0],["erman",0.0],["▁describ",0.0],["▁indust",0.0],["▁wanted",0.0],["ried",0.0],["ming",0.0],["▁attempt",0.0],["45",0.0],["fer",0.0],["▁due",0.0],["ression",0.0],["##",0.0],["▁shall",0.0],["▁six",0.0],["oo",0.0],["▁step",0.0],["▁pub",0.0],["▁himself",0.0],["▁23",0.0],["▁cop",0.0],["▁dest",0.0],["▁stop",0.0],["AC",0.0],["ibility",0.0],["▁lab",0.0],["icult",0.0],["▁hours",0.0],["▁create",0.0],["▁further",0.0],["▁America",0.0],["▁City",0.0],["▁dou",0.0],["head",0.0],["ST",0.0],["▁North",0.0],["cing",0.0],["▁national",0.0],["ule",0.0],["▁Inst",0.0],["▁taking",0.0],["▁Qu",0.0],["irt",0.0],["▁red",0.0],["▁research",0.0],["viron",0.0],["▁Ge",0.0],["▁break",0.0],["ana",0.0],["▁space",0.0],["aterial",0.0],["▁recent",0.0],["▁Ab",0.0],["▁general",0.0],["▁hit",0.0],["▁period",0.0],["▁everything",0.0],["ively",0.0],["▁phys",0.0],["▁saying",0.0],["anks",0.0],["▁cou",0.0],["▁cult",0.0],["aced",0.0],["eal",0.0],["uation",0.0],["▁coun",0.0],["lu",0.0],["▁include",0.0],["▁position",0.0],["▁After",0.0],["▁Canad",0.0],["▁Em",0.0],["▁imm",0.0],["▁Red",0.0],["▁pick",0.0],["▁compl",0.0],["▁matter",0.0],["reg",0.0],["ext",0.0],["angu",0.0],["isc",0.0],["ole",0.0],["aut",0.0],["▁compet",0.0],["eed",0.0],["fect",0.0],["▁21",0.0],["▁Sen",0.0],["▁These",0.0],["asing",0.0],["▁cannot",0.0],["▁init",0.0],["▁relations",0.0],["ached",0.0],["▁bar",0.0],["▁40",0.0],["▁TH",0.0],["▁2012",0.0],["▁vol",0.0],["▁ground",0.0],["▁security",0.0],["▁upd",0.0],["ilt",0.0],["35",0.0],["▁concern",0.0],["▁Just",0.0],["▁white",0.0],["▁seems",0.0],["▁Her",0.0],["pecially",0.0],["ients",0.0],["▁announ",0.0],["▁fig",0.0],["ights",0.0],["▁stri",0.0],["like",0.0],["ids",0.0],["▁sus",0.0],["▁watch",0.0],["▁â",0.0],["▁wind",0.0],["▁Cont",0.0],["▁itself",0.0],["▁mass",0.0],["Al",0.0],["yle",0.0],["ique",0.0],["▁National",0.0],["▁abs",0.0],["▁pack",0.0],["▁outside",0.0],["▁anim",0.0],["▁pain",0.0],["eter",0.0],["▁manag",0.0],["duct",0.0],["ogn",0.0],["▁]",0.0],["▁Sept",0.0],["sec",0.0],["off",0.0],["▁Jan",0.0],["▁foot",0.0],["ades",0.0],["▁third",0.0],["▁mot",0.0],["▁evidence",0.0],["inton",0.0],["▁threat",0.0],["apt",0.0],["ples",0.0],["cle",0.0],["▁lo",0.0],["▁decl",0.0],["▁item",0.0],["medi",0.0],["▁represent",0.0],["omb",0.0],["amer",0.0],["▁significant",0.0],["ograph",0.0],["su",0.0],["▁cal",0.0],["ires",0.0],["0000",0.0],["ID",0.0],["AM",0.0],["▁simply",0.0],["▁longer",0.0],["▁file",0.0],["OT",0.0],["che",0.0],["So",0.0],["ateg",0.0],["org",0.0],["▁His",0.0],["▁ener",0.0],["▁dom",0.0],["▁upon",0.0],["ili",0.0],["\":\"",0.0],["▁themselves",0.0],["▁coming",0.0],["▁quite",0.0],["▁difficult",0.0],["▁Bar",0.0],["ilities",0.0],["rel",0.0],["ends",0.0],["cial",0.0],["64",0.0],["▁woman",0.0],["rap",0.0],["yr",0.0],["▁necess",0.0],["ips",0.0],["▁text",0.0],["▁require",0.0],["▁military",0.0],["▁review",0.0],["▁respons",0.0],["75",0.0],["▁subject",0.0],["▁instead",0.0],["▁issues",0.0],["▁gen",0.0],["\",\"",0.0],["▁minutes",0.0],["▁weap",0.0],["ray",0.0],["amed",0.0],["time",0.0],["bl",0.0],["How",0.0],["▁code",0.0],["▁Sm",0.0],["▁higher",0.0],["▁Ste",0.0],["ris",0.0],["▁page",0.0],["▁students",0.0],["▁Intern",0.0],["▁method",0.0],["▁Aug",0.0],["▁Per",0.0],["▁Ag",0.0],["▁policy",0.0],["▁Sw",0.0],["▁exec",0.0],["▁accept",0.0],["ume",0.0],["ribut",0.0],["▁words",0.0],["▁final",0.0],["▁changes",0.0],["▁Democr",0.0],["▁friends",0.0],["▁respect",0.0],["▁ep",0.0],["▁compan",0.0],["ivil",0.0],["▁damage",0.0],["****",0.0],["ogle",0.0],["vironment",0.0],["▁neg",0.0],["ental",0.0],["▁ap",0.0],["▁total",0.0],["ival",0.0],["!\"",0.0],["lim",0.0],["▁needs",0.0],["▁agre",0.0],["▁development",0.0],["▁age",0.0],["iple",0.0],["21",0.0],["▁results",0.0],["▁Af",0.0],["Sh",0.0],["▁gun",0.0],["▁Obama",0.0],["roll",0.0],["▁@",0.0],["▁rights",0.0],["▁Brit",0.0],["▁running",0.0],["▁wasn",0.0],["▁port",0.0],["▁rate",0.0],["▁pretty",0.0],["▁target",0.0],["▁saw",0.0],["▁circ",0.0],["▁works",0.0],["icro",0.0],["alt",0.0],["over",0.0],["www",0.0],["That",0.0],["lier",0.0],["▁everyone",0.0],["ude",0.0],["▁pie",0.0],["iddle",0.0],["rael",0.0],["▁rad",0.0],["▁block",0.0],["▁walk",0.0],["To",0.0],["ãģ",0.0],["nes",0.0],["▁Aust",0.0],["aul",0.0],["rote",0.0],["▁South",0.0],["ession",0.0],["oph",0.0],["▁shows",0.0],["▁site",0.0],["▁jo",0.0],["▁risk",0.0],["clus",0.0],["lt",0.0],["▁inj",0.0],["iding",0.0],["▁Spe",0.0],["▁chall",0.0],["irm",0.0],["▁22",0.0],["itting",0.0],["str",0.0],["▁hy",0.0],["LE",0.0],["key",0.0],["▁began",0.0],["atur",0.0],["ashington",0.0],["lam",0.0],["▁Dav",0.0],["bit",0.0],["▁size",0.0],["▁Par",0.0],["38",0.0],["ournal",0.0],["face",0.0],["▁decision",0.0],["▁larg",0.0],["▁jud",0.0],["rect",0.0],["▁continue",0.0],["▁Oct",0.0],["overed",0.0],["▁Int",0.0],["========",0.0],["▁parent",0.0],["▁Will",0.0],["▁easy",0.0],["▁drug",0.0],["anger",0.0],["▁sense",0.0],["▁di",0.0],["iday",0.0],["▁energy",0.0],["istic",0.0],["▁associ",0.0],["arter",0.0],["obal",0.0],["eks",0.0],["▁El",0.0],["urch",0.0],["▁girl",0.0],["oe",0.0],["itle",0.0],["▁28",0.0],["▁Che",0.0],["▁request",0.0],["▁soon",0.0],["▁host",0.0],["ky",0.0],["▁states",0.0],["omes",0.0],["▁material",0.0],["lex",0.0],["▁moment",0.0],["▁answ",0.0],["onse",0.0],["▁especially",0.0],["▁norm",0.0],["▁services",0.0],["pite",0.0],["ran",0.0],["▁role",0.0],["44",0.0],["):",0.0],["▁cred",0.0],["Cl",0.0],["________",0.0],["▁mat",0.0],["▁log",0.0],["▁Clinton",0.0],["OU",0.0],["▁office",0.0],["▁26",0.0],["▁charg",0.0],["▁track",0.0],["ma",0.0],["▁heart",0.0],["▁ball",0.0],["▁personal",0.0],["▁building",0.0],["na",0.0],["set",0.0],["body",0.0],["▁Black",0.0],["▁increase",0.0],["itten",0.0],["▁needed",0.0],["36",0.0],["32",0.0],["=\"",0.0],["▁lost",0.0],["▁became",0.0],["▁groups",0.0],["▁Mus",0.0],["▁wrote",0.0],["▁Pe",0.0],["▁prop",0.0],["joy",0.0],["Ã©",0.0],["▁White",0.0],["▁dead",0.0],[".'",0.0],["▁http",0.0],["▁webs",0.0],["OS",0.0],["▁inside",0.0],["▁wrong",0.0],["▁statement",0.0],["▁...",0.0],["yl",0.0],["▁film",0.0],["▁music",0.0],["▁share",0.0],["ification",0.0],["▁release",0.0],["▁forward",0.0],["▁stay",0.0],["▁comput",0.0],["itte",0.0],["ser",0.0],["▁original",0.0],["▁card",0.0],["▁cand",0.0],["▁div",0.0],["atural",0.0],["▁favor",0.0],["OM",0.0],["▁cases",0.0],["uses",0.0],["▁section",0.0],["▁leave",0.0],["ging",0.0],["oved",0.0],["▁Washington",0.0],["39",0.0],["▁Gl",0.0],["▁required",0.0],["action",0.0],["apan",0.0],["oor",0.0],["iter",0.0],["▁King",0.0],["▁countries",0.0],["▁German",0.0],["lling",0.0],["▁27",0.0],["34",0.0],["▁questions",0.0],["▁prim",0.0],["▁cell",0.0],["▁shoot",0.0],["▁anyone",0.0],["▁West",0.0],["▁affect",0.0],["epend",0.0],["▁online",0.0],["▁Israel",0.0],["▁September",0.0],["▁ability",0.0],["▁content",0.0],["ises",0.0],["▁reve",0.0],["▁laun",0.0],["▁indic",0.0],["▁force",0.0],["cast",0.0],["▁sold",0.0],["aving",0.0],["fl",0.0],["▁soft",0.0],["▁companies",0.0],["ceed",0.0],["▁article",0.0],["▁aud",0.0],["▁rev",0.0],["▁educ",0.0],["▁playing",0.0],["05",0.0],["▁held",0.0],["ctor",0.0],["▁released",0.0],["▁federal",0.0],["37",0.0],["▁administ",0.0],["▁interview",0.0],["▁install",0.0],["▁received",0.0],["▁source",0.0],["uk",0.0],["Ph",0.0],["▁serious",0.0],["▁created",0.0],["▁cause",0.0],["▁immedi",0.0],["▁defin",0.0],["uel",0.0],["▁Department",0.0],["ctions",0.0],["▁Cour",0.0],["▁Now",0.0],["ze",0.0],["ites",0.0],["itution",0.0],["▁late",0.0],["▁speak",0.0],["ners",0.0],["▁legal",0.0],["ari",0.0],["▁Cor",0.0],["▁weeks",0.0],["▁model",0.0],["▁pred",0.0],["▁exact",0.0],["BC",0.0],["▁By",0.0],["ING",0.0],["osing",0.0],["▁takes",0.0],["▁regard",0.0],["▁opportun",0.0],["▁price",0.0],["▁198",0.0],["▁Apr",0.0],["fully",0.0],["▁ord",0.0],["▁problems",0.0],["ruction",0.0],["ham",0.0],["▁Count",0.0],["lege",0.0],["▁leaders",0.0],["ET",0.0],["lev",0.0],["▁deep",0.0],["ological",0.0],["ese",0.0],["haps",0.0],["▁Some",0.0],["▁pers",0.0],["▁contract",0.0],["▁relationship",0.0],["sp",0.0],["oud",0.0],["▁base",0.0],["48",0.0],["mit",0.0],["Ad",0.0],["ancial",0.0],["▁consum",0.0],["▁potential",0.0],["▁langu",0.0],["rem",0.0],["eth",0.0],["▁relig",0.0],["ressed",0.0],["66",0.0],["▁link",0.0],["▁lower",0.0],["ayer",0.0],["▁June",0.0],["▁fem",0.0],["unt",0.0],["erc",0.0],["urd",0.0],["▁contact",0.0],["▁ill",0.0],["▁mother",0.0],["▁estab",0.0],["htt",0.0],["▁March",0.0],["▁Bro",0.0],["▁China",0.0],["▁29",0.0],["▁squ",0.0],["▁provided",0.0],["▁average",0.0],["asons",0.0],["▁2011",0.0],["▁exam",0.0],["lin",0.0],["55",0.0],["ned",0.0],["▁perfect",0.0],["▁tou",0.0],["alse",0.0],["ux",0.0],["▁buy",0.0],["▁shot",0.0],["▁collect",0.0],["▁phot",0.0],["▁played",0.0],["▁surpr",0.0],["▁officials",0.0],["▁simple",0.0],["avy",0.0],["▁industry",0.0],["▁hands",0.0],["ground",0.0],["▁pull",0.0],["▁round",0.0],["▁user",0.0],["▁range",0.0],["uary",0.0],["▁private",0.0],["ops",0.0],["ees",0.0],["▁ways",0.0],["▁Mich",0.0],["▁veh",0.0],["▁except",0.0],["▁terms",0.0],["imum",0.0],["pper",0.0],["ION",0.0],["ores",0.0],["▁Dragon",0.0],["oul",0.0],["▁den",0.0],["▁performance",0.0],["▁bill",0.0],["cil",0.0],["47",0.0],["▁environment",0.0],["▁exc",0.0],["add",0.0],["▁worth",0.0],["▁pict",0.0],["▁chance",0.0],["▁2018",0.0],["bor",0.0],["▁speed",0.0],["iction",0.0],["▁alleg",0.0],["▁Japan",0.0],["atory",0.0],["reet",0.0],["▁match",0.0],["▁II",0.0],["▁stru",0.0],["order",0.0],["▁ste",0.0],["▁living",0.0],["▁struct",0.0],["ino",0.0],["▁separ",0.0],["hern",0.0],["▁response",0.0],["▁enjoy",0.0],["▁via",0.0],["AD",0.0],["uments",0.0],["acebook",0.0],["▁member",0.0],["ibr",0.0],["izing",0.0],["▁tool",0.0],["▁Mon",0.0],["▁While",0.0],["hood",0.0],["▁Ang",0.0],["▁Def",0.0],["▁offer",0.0],["Tr",0.0],["aur",0.0],["▁turned",0.0],["▁July",0.0],["down",0.0],["anced",0.0],["▁recently",0.0],["▁Ear",0.0],["▁ce",0.0],["▁Star",0.0],["▁Cong",0.0],["rought",0.0],["▁blood",0.0],["▁hope",0.0],["▁comment",0.0],["aint",0.0],["▁arri",0.0],["iles",0.0],["▁particip",0.0],["ought",0.0],["ription",0.0],["08",0.0],["49",0.0],["▁gave",0.0],["▁select",0.0],["▁killed",0.0],["sych",0.0],["▁goes",0.0],["ij",0.0],["▁coll",0.0],["▁impact",0.0],["atives",0.0],["▁Ser",0.0],["09",0.0],["▁August",0.0],["▁boy",0.0],["de",0.0],["▁Des",0.0],["▁felt",0.0],["US",0.0],["▁expected",0.0],["▁image",0.0],["▁Mark",0.0],["ccording",0.0],["oice",0.0],["EC",0.0],["▁Mag",0.0],["ened",0.0],["hold",0.0],["▁Post",0.0],["▁prevent",0.0],["No",0.0],["▁involved",0.0],["▁eyes",0.0],["▁quickly",0.0],["At",0.0],["unk",0.0],["▁behav",0.0],["▁ur",0.0],["▁led",0.0],["come",0.0],["ey",0.0],["▁candid",0.0],["▁earlier",0.0],["▁focus",0.0],["ety",0.0],["Pro",0.0],["ledge",0.0],["ixed",0.0],["illed",0.0],["▁popular",0.0],["AP",0.0],["▁sett",0.0],["light",0.0],["▁various",0.0],["inks",0.0],["▁levels",0.0],["▁road",0.0],["ellig",0.0],["ables",0.0],["hel",0.0],["ittee",0.0],["▁Gener",0.0],["ype",0.0],["▁heard",0.0],["icles",0.0],["▁mis",0.0],["▁users",0.0],["▁San",0.0],["▁improve",0.0],["▁father",0.0],["▁search",0.0],["They",0.0],["vil",0.0],["▁profess",0.0],["▁knew",0.0],["▁loss",0.0],["▁events",0.0],["65",0.0],["▁billion",0.0],["07",0.0],["02",0.0],["▁News",0.0],["▁AM",0.0],["▁cover",0.0],["where",0.0],["ension",0.0],["▁bott",0.0],["▁areas",0.0],["ences",0.0],["ope",0.0],["▁Twitter",0.0],["ael",0.0],["▁gets",0.0],["▁Google",0.0],["▁sn",0.0],["iant",0.0],["▁vote",0.0],["▁nearly",0.0],["▁included",0.0],["▁recogn",0.0],["zz",0.0],["mm",0.0],["aled",0.0],["▁happened",0.0],["04",0.0],["▁hot",0.0],["▁whose",0.0],["▁civil",0.0],["▁suff",0.0],["oes",0.0],["itiz",0.0],["▁Syri",0.0],["▁respond",0.0],["▁hon",0.0],["▁features",0.0],["▁economic",0.0],["▁April",0.0],["rim",0.0],["▁technology",0.0],["▁option",0.0],["aging",0.0],["▁purch",0.0],["Re",0.0],["▁lat",0.0],["chie",0.0],["isl",0.0],["▁recomm",0.0],["uf",0.0],["▁training",0.0],["▁effects",0.0],["▁fast",0.0],["▁2010",0.0],["▁occur",0.0],["▁website",0.0],["▁email",0.0],["▁sens",0.0],["ech",0.0],["▁oil",0.0],["▁influ",0.0],["▁currently",0.0],["▁Sch",0.0],["▁Add",0.0],["▁goal",0.0],["▁scient",0.0],["▁conv",0.0],["100",0.0],["emy",0.0],["▁decided",0.0],["▁travel",0.0],["▁mention",0.0],["LL",0.0],["03",0.0],["▁election",0.0],["▁phone",0.0],["▁looks",0.0],["▁situation",0.0],["▁cy",0.0],["▁hor",0.0],["bed",0.0],["▁Court",0.0],["aily",0.0],["aves",0.0],["▁quality",0.0],["▁Comp",0.0],["wise",0.0],["▁table",0.0],["▁staff",0.0],["▁Wind",0.0],["ett",0.0],["▁tried",0.0],["idered",0.0],["▁addition",0.0],["▁box",0.0],["▁lack",0.0],["arily",0.0],["▁wide",0.0],["▁mid",0.0],["▁board",0.0],["ysis",0.0],["▁anti",0.0],["ha",0.0],["▁dig",0.0],["ening",0.0],["▁dro",0.0],["Con",0.0],["68",0.0],["▁slow",0.0],["based",0.0],["sequ",0.0],["▁path",0.0],["Ex",0.0],["aker",0.0],["▁worked",0.0],["▁pen",0.0],["▁engine",0.0],["▁looked",0.0],["▁Super",0.0],["▁Serv",0.0],["▁victim",0.0],["Un",0.0],["▁property",0.0],["▁introdu",0.0],["▁execut",0.0],["▁PM",0.0],["Le",0.0],["▁color",0.0],["▁More",0.0],["▁60",0.0],["▁network",0.0],["▁date",0.0],["cul",0.0],["idge",0.0],["▁extra",0.0],["31",0.0],["▁sle",0.0],["67",0.0],["▁wond",0.0],["▁reports",0.0],["just",0.0],["▁Austral",0.0],["▁capital",0.0],["▁ens",0.0],["▁command",0.0],["▁allowed",0.0],["▁prep",0.0],["▁capt",0.0],["hib",0.0],["▁numbers",0.0],["chan",0.0],["▁fair",0.0],["mp",0.0],["oms",0.0],["▁reach",0.0],["With",0.0],["tain",0.0],["▁broad",0.0],["▁couple",0.0],["ecause",0.0],["lying",0.0],["▁Feb",0.0],["▁screen",0.0],["▁lives",0.0],["▁prior",0.0],["▁Congress",0.0],["Ar",0.0],["▁approach",0.0],["▁emer",0.0],["aries",0.0],["▁Dis",0.0],["serv",0.0],["▁Ne",0.0],["▁built",0.0],["cies",0.0],["▁repe",0.0],["▁rules",0.0],["force",0.0],["▁Pal",0.0],["▁financial",0.0],["▁considered",0.0],["▁Char",0.0],["nces",0.0],["▁IS",0.0],["▁brought",0.0],["▁bi",0.0],["iers",0.0],["▁Sim",0.0],["OP",0.0],["▁products",0.0],["▁visit",0.0],["▁document",0.0],["▁conduct",0.0],["▁completely",0.0],["ining",0.0],["▁Calif",0.0],["ibly",0.0],["▁written",0.0],["▁TV",0.0],["ements",0.0],["▁draw",0.0],["One",0.0],["▁published",0.0],["▁secret",0.0],["rain",0.0],["het",0.0],["▁Facebook",0.0],["onday",0.0],["▁Up",0.0],["▁sexual",0.0],["▁thous",0.0],["▁Pat",0.0],["▁ess",0.0],["▁standard",0.0],["▁arm",0.0],["ges",0.0],["ection",0.0],["▁fell",0.0],["▁foreign",0.0],["ani",0.0],["▁Friday",0.0],["▁regular",0.0],["inary",0.0],["▁increased",0.0],["▁usually",0.0],["▁demon",0.0],["▁dark",0.0],["▁additional",0.0],["rol",0.0],["▁Of",0.0],["▁production",0.0],["!!",0.0],["undred",0.0],["▁international",0.0],["idents",0.0],["▁Free",0.0],["roup",0.0],["▁race",0.0],["▁mach",0.0],["▁huge",0.0],["All",0.0],["lear",0.0],["ovember",0.0],["▁town",0.0],["▁attention",0.0],["▁Off",0.0],["yond",0.0],["▁Then",0.0],["field",0.0],["▁terror",0.0],["raz",0.0],["▁Bo",0.0],["▁meeting",0.0],["▁Park",0.0],["▁arrest",0.0],["▁fear",0.0],["▁aw",0.0],["▁Val",0.0],["oring",0.0],["',",0.0],["▁extreme",0.0],["arr",0.0],["▁workers",0.0],["After",0.0],["▁31",0.0],["net",0.0],["ament",0.0],["▁directly",0.0],["▁population",0.0],["ube",0.0],["▁October",0.0],["▁IN",0.0],["▁January",0.0],["59",0.0],["▁David",0.0],["▁cross",0.0],["cember",0.0],["▁First",0.0],["▁message",0.0],["irit",0.0],["▁nation",0.0],["▁poll",0.0],["isions",0.0],["▁answer",0.0],["ny",0.0],["isode",0.0],["▁carry",0.0],["▁Russia",0.0],["▁hear",0.0],["ength",0.0],["roy",0.0],["▁natural",0.0],["inally",0.0],["▁dog",0.0],["mitted",0.0],["▁trade",0.0],["▁subst",0.0],["▁multiple",0.0],["▁Afric",0.0],["▁fans",0.0],["▁sort",0.0],["▁global",0.0],["ication",0.0],["▁Wed",0.0],["ara",0.0],["▁achie",0.0],["▁language",0.0],["vey",0.0],["▁tal",0.0],["▁necessary",0.0],["▁details",0.0],["▁sen",0.0],["▁Sund",0.0],["▁Reg",0.0],["▁Rec",0.0],["06",0.0],["▁sil",0.0],["ressive",0.0],["▁medical",0.0],["unch",0.0],["ornia",0.0],["▁und",0.0],["fort",0.0],["ocks",0.0],["▁Monday",0.0],["uesday",0.0],["craft",0.0],["77",0.0],["urt",0.0],["▁ver",0.0],["▁Hill",0.0],["▁receive",0.0],["▁morning",0.0],["estern",0.0],["▁bank",0.0],["▁sat",0.0],["irth",0.0],["▁High",0.0],["▁device",0.0],["▁THE",0.0],["▁Center",0.0],["▁safe",0.0],["▁ple",0.0],["▁Canada",0.0],["▁systems",0.0],["▁assist",0.0],["▁surv",0.0],["▁battle",0.0],["▁Soc",0.0],["vertis",0.0],["She",0.0],["▁paper",0.0],["▁growth",0.0],["▁cast",0.0],["Sc",0.0],["▁plans",0.0],["lled",0.0],["▁parts",0.0],["▁wall",0.0],["▁movement",0.0],["▁practice",0.0],["imately",0.0],["▁display",0.0],["▁sometimes",0.0],["omp",0.0],["▁Paul",0.0],["▁Yes",0.0],["king",0.0],["58",0.0],["oly",0.0],["▁son",0.0],["▁avoid",0.0],["okes",0.0],["▁Jew",0.0],["▁towards",0.0],["asc",0.0],["▁//",0.0],["▁Kore",0.0],["▁talking",0.0],["▁correct",0.0],["▁spent",0.0],["icks",0.0],["iable",0.0],["eared",0.0],["▁term",0.0],["▁wants",0.0],["oming",0.0],["▁ut",0.0],["▁doub",0.0],["▁forces",0.0],["▁please",0.0],["69",0.0],["▁November",0.0],["atform",0.0],["ondon",0.0],["▁ones",0.0],["▁immediately",0.0],["▁Russian",0.0],["▁Met",0.0],["▁deg",0.0],["▁parents",0.0],["CH",0.0],["▁Americans",0.0],["aly",0.0],["▁Mod",0.0],["▁shown",0.0],["▁conditions",0.0],["▁stuff",0.0],["▁reb",0.0],["▁Your",0.0],["▁includes",0.0],["nown",0.0],["▁Sam",0.0],["▁experien",0.0],["mission",0.0],["▁Even",0.0],["aught",0.0],["▁announced",0.0],["▁Republican",0.0],["▁determin",0.0],["▁described",0.0],["▁County",0.0],["()",0.0],["▁door",0.0],["▁changed",0.0],["▁neigh",0.0],["▁Here",0.0],["▁clean",0.0],["▁pan",0.0],["▁December",0.0],["▁European",0.0],["iring",0.0],["apter",0.0],["▁club",0.0],["▁Tuesday",0.0],["▁paid",0.0],["▁Net",0.0],["▁attacks",0.0],["▁characters",0.0],["▁alone",0.0],["▁director",0.0],["dom",0.0],["▁35",0.0],["▁load",0.0],["▁rout",0.0],["▁California",0.0],["▁finally",0.0],["▁rac",0.0],["▁contr",0.0],["▁exactly",0.0],["resh",0.0],["pri",0.0],["▁Islam",0.0],["▁nature",0.0],["▁career",0.0],["▁latest",0.0],["▁convers",0.0],["▁Sl",0.0],["pose",0.0],["cient",0.0],["▁Inc",0.0],["ivity",0.0],["88",0.0],["▁Att",0.0],["▁Mor",0.0],["nesday",0.0],["▁weight",0.0],["ken",0.0],["▁note",0.0],["▁teams",0.0],["▁\\",0.0],["airs",0.0],["▁Green",0.0],["▁hundred",0.0],["onent",0.0],["▁streng",0.0],["▁consist",0.0],["icated",0.0],["▁regul",0.0],["▁lic",0.0],["astic",0.0],["▁ten",0.0],["ursday",0.0],["elligence",0.0],["ously",0.0],["▁UK",0.0],["BI",0.0],["▁costs",0.0],["▁independ",0.0],["▁AP",0.0],["▁normal",0.0],["▁hom",0.0],["▁obvious",0.0],["▁swe",0.0],["▁star",0.0],["▁ready",0.0],["acher",0.0],["▁implement",0.0],["gest",0.0],["▁song",0.0],["▁Get",0.0],["▁Lab",0.0],["▁interesting",0.0],["using",0.0],["▁giving",0.0],["▁Sunday",0.0],["▁etc",0.0],["▁middle",0.0],["▁remember",0.0],["right",0.0],["osition",0.0],["utions",0.0],["▁max",0.0],["46",0.0],["▁yourself",0.0],["▁demand",0.0],["▁treatment",0.0],["▁danger",0.0],["▁Cons",0.0],["▁guy",0.0],["▁British",0.0],["▁physical",0.0],["▁related",0.0],["▁remain",0.0],["▁couldn",0.0],["▁refer",0.0],["▁citiz",0.0],["box",0.0],["ENT",0.0],["board",0.0],["▁inn",0.0],["IG",0.0],["ero",0.0],["▁Street",0.0],["ospital",0.0],["rench",0.0],["chers",0.0],["▁stra",0.0],["OL",0.0],["ager",0.0],["▁AN",0.0],["▁easily",0.0],["IA",0.0],["enge",0.0],["iny",0.0],["▁clos",0.0],["ocked",0.0],["▁uses",0.0],["▁Coun",0.0],["Im",0.0],["uild",0.0],["??",0.0],["more",0.0],["▁ang",0.0],["▁write",0.0],["olute",0.0],["57",0.0],["▁leader",0.0],["▁reading",0.0],["</",0.0],["▁autom",0.0],["ests",0.0],["43",0.0],["▁legisl",0.0],["▁Gold",0.0],["▁designed",0.0],["▁ST",0.0],["▁Leg",0.0],["ares",0.0],["▁beaut",0.0],["▁Tex",0.0],["▁appears",0.0],["▁strugg",0.0],["▁Rom",0.0],["▁00",0.0],["▁choice",0.0],["▁particularly",0.0],["▁From",0.0],["oper",0.0],["▁London",0.0],["anned",0.0],["▁allows",0.0],["obile",0.0],["▁difference",0.0],["âĢ¢",0.0],["▁View",0.0],["▁Wednesday",0.0],["▁although",0.0],["▁relative",0.0],["▁application",0.0],["atever",0.0],["▁aren",0.0],["▁myself",0.0],["▁imag",0.0],["▁dise",0.0],["▁society",0.0],["▁frequ",0.0],["▁English",0.0],["▁poor",0.0],["▁Day",0.0],["▁writing",0.0],["▁seven",0.0],["▁starting",0.0],["▁bud",0.0],["▁print",0.0],["▁Trans",0.0],["ufact",0.0],["▁Stud",0.0],["new",0.0],["▁crim",0.0],["▁gives",0.0],["▁cool",0.0],["ae",0.0],["iance",0.0],["▁General",0.0],["▁thinking",0.0],["▁save",0.0],["▁limited",0.0],["▁Party",0.0],["▁meaning",0.0],["pen",0.0],["owers",0.0],["▁Jack",0.0],["EM",0.0],["▁nice",0.0],["rupt",0.0],["▁gas",0.0],["▁eight",0.0],["▁feet",0.0],["▁effort",0.0],["▁ign",0.0],["icit",0.0],["Bl",0.0],["coin",0.0],["▁opin",0.0],["▁brain",0.0],["While",0.0],["hest",0.0],["▁Thursday",0.0],["▁wouldn",0.0],["aughter",0.0],["▁touch",0.0],["lements",0.0],["▁studies",0.0],["▁center",0.0],["cont",0.0],["orge",0.0],["▁computer",0.0],["▁investigation",0.0],["Pl",0.0],["orks",0.0],["▁2008",0.0],["▁increasing",0.0],["▁store",0.0],["▁comments",0.0],["▁bal",0.0],["men",0.0],["▁doll",0.0],["▁liber",0.0],["▁wife",0.0],["▁laws",0.0],["aturday",0.0],["itness",0.0],["▁modern",0.0],["▁Sk",0.0],["▁administration",0.0],["▁opportunity",0.0],["▁sal",0.0],["▁powerful",0.0],["My",0.0],["▁claims",0.0],["▁Earth",0.0],["ords",0.0],["▁title",0.0],["▁esc",0.0],["name",0.0],["Not",0.0],["omen",0.0],["▁beyond",0.0],["▁camer",0.0],["▁sell",0.0],["itute",0.0],["earch",0.0],["▁appl",0.0],["iment",0.0],["42",0.0],["▁Art",0.0],["▁unf",0.0],["▁violence",0.0],["urg",0.0],["▁East",0.0],["▁compared",0.0],["▁options",0.0],["▁throughout",0.0],["▁vs",0.0],["igr",0.0],[".[",0.0],["aches",0.0],["78",0.0],["▁files",0.0],["FL",0.0],["EL",0.0],["arian",0.0],["▁James",0.0],["▁Air",0.0],["anch",0.0],["▁detail",0.0],["▁piece",0.0],["PS",0.0],["▁named",0.0],["▁education",0.0],["▁drive",0.0],["▁items",0.0],["▁student",0.0],["iced",0.0],["::",0.0],["ico",0.0],["▁throw",0.0],["▁scene",0.0],["▁complex",0.0],["▁2009",0.0],["▁prec",0.0],["▁Bre",0.0],["79",0.0],["▁concept",0.0],["▁status",0.0],["aming",0.0],["▁died",0.0],["▁knowledge",0.0],["▁beginning",0.0],["OD",0.0],["ruary",0.0],["▁certainly",0.0],["▁guys",0.0],["▁slight",0.0],["inn",0.0],["ounds",0.0],["▁fine",0.0],["▁fat",0.0],["ications",0.0],["▁perhaps",0.0],["▁Ant",0.0],["▁income",0.0],["▁https",0.0],["▁majority",0.0],["ports",0.0],["ston",0.0],["▁greater",0.0],["▁feed",0.0],["entially",0.0],["▁safety",0.0],["▁unique",0.0],["andom",0.0],["▁gone",0.0],["▁showed",0.0],["▁histor",0.0],["▁counter",0.0],["ius",0.0],["ida",0.0],["▁leading",0.0],["ipe",0.0],["▁send",0.0],["▁Donald",0.0],["erve",0.0],["▁defense",0.0],["inese",0.0],["▁yes",0.0],["▁Fire",0.0],["▁Muslim",0.0],["raq",0.0],["▁continued",0.0],["osh",0.0],["▁provides",0.0],["▁prison",0.0],["▁Pre",0.0],["▁happy",0.0],["▁economy",0.0],["▁trust",0.0],["ags",0.0],["▁Game",0.0],["▁weapons",0.0],["uman",0.0],["▁Cle",0.0],["itation",0.0],["▁analysis",0.0],["▁Times",0.0],["▁science",0.0],["->",0.0],["▁figure",0.0],["▁disapp",0.0],["enty",0.0],["▁software",0.0],["▁ult",0.0],["▁officers",0.0],["New",0.0],["Is",0.0],["▁remains",0.0],["▁India",0.0],["▁psych",0.0],["rief",0.0],["▁cat",0.0],["esc",0.0],["▁observ",0.0],["▁stage",0.0],["▁Dark",0.0],["▁enter",0.0],["change",0.0],["▁passed",0.0],["▁despite",0.0],["▁Out",0.0],["▁movie",0.0],["rs",0.0],["▁voice",0.0],["mine",0.0],["▁Play",0.0],["▁toward",0.0],["▁Ter",0.0],["▁region",0.0],["▁values",0.0],["orters",0.0],["▁mount",0.0],["▁officer",0.0],["▁Other",0.0],["ban",0.0],["▁hous",0.0],["wood",0.0],["room",0.0],["IV",0.0],["▁Sun",0.0],["see",0.0],["▁Over",0.0],["rog",0.0],["90",0.0],["▁lay",0.0],["▁Tur",0.0],["awn",0.0],["▁pressure",0.0],["▁Sub",0.0],["▁books",0.0],["edom",0.0],["▁Sand",0.0],["AA",0.0],["ago",0.0],["▁reasons",0.0],["ford",0.0],["▁activity",0.0],["UT",0.0],["Now",0.0],["▁Senate",0.0],["cell",0.0],["night",0.0],["▁calls",0.0],["inter",0.0],["▁letter",0.0],["▁Rob",0.0],["▁Je",0.0],["▁choose",0.0],["▁Law",0.0],["Get",0.0],["Be",0.0],["▁rob",0.0],["▁types",0.0],["▁platform",0.0],["▁quarter",0.0],["RA",0.0],["▁Time",0.0],["▁maybe",0.0],["▁Cr",0.0],["95",0.0],["pre",0.0],["▁moving",0.0],["▁lif",0.0],["▁gold",0.0],["▁som",0.0],["▁patients",0.0],["▁truth",0.0],["▁Ke",0.0],["urance",0.0],["antly",0.0],["mar",0.0],["▁charge",0.0],["▁Great",0.0],["▁cele",0.0],["--------------------------------",0.0],["▁rock",0.0],["roid",0.0],["ancy",0.0],["▁credit",0.0],["aud",0.0],["By",0.0],["▁Every",0.0],["▁moved",0.0],["inger",0.0],["ribution",0.0],["▁names",0.0],["▁straight",0.0],["▁Health",0.0],["▁Well",0.0],["▁feature",0.0],["▁rule",0.0],["▁sche",0.0],["inated",0.0],["▁Michael",0.0],["berg",0.0],["41",0.0],["iled",0.0],["band",0.0],["▁click",0.0],["▁Angel",0.0],["onents",0.0],["ÂŃ",0.0],["▁Iraq",0.0],["▁Saturday",0.0],["▁aware",0.0],["part",0.0],["▁pattern",0.0],["OW",0.0],["▁Let",0.0],["▁grad",0.0],["igned",0.0],["▁associated",0.0],["▁style",0.0],["no",0.0],["iation",0.0],["aith",0.0],["ilies",0.0],["▁stories",0.0],["uration",0.0],["▁individuals",0.0],["▁âĢ¦",0.0],["miss",0.0],["▁Associ",0.0],["ishing",0.0],["aby",0.0],["▁summer",0.0],["▁Ben",0.0],["▁32",0.0],["▁arch",0.0],["uty",0.0],["▁Texas",0.0],["hol",0.0],["▁fully",0.0],["▁mill",0.0],["▁followed",0.0],["▁Bill",0.0],["▁Indian",0.0],["▁Secret",0.0],["▁Bel",0.0],["▁February",0.0],["▁jobs",0.0],["▁seemed",0.0],["▁Govern",0.0],["ipped",0.0],["▁reality",0.0],["▁lines",0.0],["▁park",0.0],["▁measure",0.0],["▁Our",0.0],["IM",0.0],["▁brother",0.0],["▁growing",0.0],["▁ban",0.0],["▁estim",0.0],["▁cry",0.0],["▁School",0.0],["▁mechan",0.0],["▁OF",0.0],["▁Windows",0.0],["▁rates",0.0],["▁Oh",0.0],["▁positive",0.0],["▁culture",0.0],["istics",0.0],["ica",0.0],["▁har",0.0],["ya",0.0],["itely",0.0],["ipp",0.0],["▁map",0.0],["encies",0.0],["▁William",0.0],["II",0.0],["akers",0.0],["56",0.0],["▁Mart",0.0],["▁Rem",0.0],["▁altern",0.0],["itude",0.0],["▁coach",0.0],["rowd",0.0],["Don",0.0],["▁kids",0.0],["▁journal",0.0],["▁corpor",0.0],["▁false",0.0],["▁web",0.0],["▁sleep",0.0],["▁contain",0.0],["▁sto",0.0],["▁bed",0.0],["iverse",0.0],["▁Rich",0.0],["▁Chinese",0.0],["▁pun",0.0],["▁meant",0.0],["known",0.0],["▁notice",0.0],["▁favorite",0.0],["aven",0.0],["▁condition",0.0],["▁purpose",0.0],["))",0.0],["▁organization",0.0],["▁challeng",0.0],["▁manufact",0.0],["▁susp",0.0],["▁Ac",0.0],["▁critic",0.0],["unes",0.0],["uclear",0.0],["▁mer",0.0],["vention",0.0],["▁80",0.0],["▁mist",0.0],["▁Us",0.0],["▁Tor",0.0],["http",0.0],["olf",0.0],["▁larger",0.0],["▁advant",0.0],["▁resear",0.0],["▁actions",0.0],["ml",0.0],["▁kept",0.0],["▁aim",0.0],[",'",0.0],["col",0.0],["▁benefits",0.0],["ifying",0.0],["▁actual",0.0],["▁International",0.0],["▁vehicle",0.0],["▁chief",0.0],["▁efforts",0.0],["▁League",0.0],["▁Most",0.0],["▁wait",0.0],["▁adult",0.0],["▁overall",0.0],["▁speech",0.0],["▁highly",0.0],["▁female",0.0],["▁error",0.0],["▁effective",0.0],["54",0.0],["▁encour",0.0],["well",0.0],["▁failed",0.0],["▁conserv",0.0],["▁programs",0.0],["▁trou",0.0],["▁ahead",0.0],["500",0.0],["vertisement",0.0],["IP",0.0],["▁Found",0.0],["pir",0.0],["▁%",0.0],["▁crime",0.0],["ander",0.0],["▁location",0.0],["▁Iran",0.0],["▁behavior",0.0],["azing",0.0],["▁rare",0.0],["▁emb",0.0],["▁caused",0.0],["▁ship",0.0],["▁active",0.0],["▁contribut",0.0],["▁green",0.0],["▁acqu",0.0],["▁reflect",0.0],["venue",0.0],["▁firm",0.0],["▁birth",0.0],["].",0.0],["▁clearly",0.0],["▁emot",0.0],["▁agency",0.0],["riage",0.0],["▁memory",0.0],["98",0.0],["SA",0.0],["▁See",0.0],["acing",0.0],["CC",0.0],["▁biggest",0.0],["▁rap",0.0],["▁basic",0.0],["▁band",0.0],["eat",0.0],["▁suspect",0.0],["▁Mac",0.0],["▁90",0.0],["mark",0.0],["istan",0.0],["▁spread",0.0],["ams",0.0],["ki",0.0],["asy",0.0],["rav",0.0],["▁Rober",0.0],["▁demonstr",0.0],["rated",0.0],["▁absolute",0.0],["▁places",0.0],["▁impl",0.0],["ibrary",0.0],["▁cards",0.0],["▁destroy",0.0],["▁virt",0.0],["vere",0.0],["▁appeared",0.0],["yan",0.0],["point",0.0],["▁beg",0.0],["▁temper",0.0],["spe",0.0],["anted",0.0],["ears",0.0],["▁Direct",0.0],["▁length",0.0],["▁blog",0.0],["amb",0.0],["▁integ",0.0],["▁resources",0.0],["acc",0.0],["iful",0.0],["▁spot",0.0],["▁forced",0.0],["▁thousands",0.0],["▁Minister",0.0],["▁qual",0.0],["▁French",0.0],["atically",0.0],["▁generally",0.0],["▁drink",0.0],["▁thus",0.0],["IL",0.0],["odes",0.0],["▁appropri",0.0],["▁Read",0.0],["▁whom",0.0],["▁eye",0.0],["▁college",0.0],["▁45",0.0],["irection",0.0],["▁ensure",0.0],["▁apparent",0.0],["iders",0.0],["▁religious",0.0],["▁minor",0.0],["olic",0.0],["▁tro",0.0],["▁Why",0.0],["ribute",0.0],["met",0.0],["▁primary",0.0],["▁developed",0.0],["▁peace",0.0],["▁skin",0.0],["ste",0.0],["ava",0.0],["▁blue",0.0],["▁families",0.0],["▁ir",0.0],["▁apply",0.0],["▁inform",0.0],["▁Smith",0.0],["CT",0.0],["ii",0.0],["▁limit",0.0],["▁resist",0.0],["................",0.0],["umn",0.0],["▁conflic",0.0],["▁twe",0.0],["udd",0.0],["▁Tom",0.0],["▁liter",0.0],["que",0.0],["bon",0.0],["▁hair",0.0],["▁eventually",0.0],["▁pus",0.0],["▁helped",0.0],["▁agg",0.0],["orney",0.0],["▁Apple",0.0],["▁fit",0.0],["▁Sur",0.0],["▁prem",0.0],["▁sales",0.0],["▁seconds",0.0],["▁strength",0.0],["▁feeling",0.0],["¿½",0.0],["▁tour",0.0],["▁knows",0.0],["oom",0.0],["▁exerc",0.0],["▁somew",0.0],["ï¿½",0.0],[">>",0.0],["▁spokes",0.0],["▁ideas",0.0],["▁regist",0.0],["soft",0.0],["▁Del",0.0],["▁PC",0.0],["▁propos",0.0],["▁launch",0.0],["▁bottom",0.0],["TH",0.0],["▁Please",0.0],["vest",0.0],["itz",0.0],["▁Inter",0.0],["▁script",0.0],["▁rat",0.0],["arning",0.0],["▁il",0.0],["▁Jer",0.0],["▁Are",0.0],["▁whatever",0.0],["oken",0.0],["cience",0.0],["▁mode",0.0],["▁agree",0.0],["▁sources",0.0],["▁initial",0.0],["▁restrict",0.0],["▁wonder",0.0],["usion",0.0],["####",0.0],["▁Sil",0.0],["ville",0.0],["▁burn",0.0],["tw",0.0],["asion",0.0],["▁Â£",0.0],["▁nor",0.0],["uing",0.0],["▁reached",0.0],["▁sun",0.0],["▁categ",0.0],["igration",0.0],["▁cook",0.0],["▁promot",0.0],["▁male",0.0],["▁climate",0.0],["▁fix",0.0],["▁alleged",0.0],["UR",0.0],["alled",0.0],["▁images",0.0],["Cont",0.0],["ota",0.0],["▁schools",0.0],["ios",0.0],["▁drop",0.0],["▁stream",0.0],["▁Mo",0.0],["▁previously",0.0],["aling",0.0],["▁pet",0.0],["▁double",0.0],["▁(@",0.0],["annel",0.0],["▁default",0.0],["ties",0.0],["▁rank",0.0],["▁Dec",0.0],["▁Council",0.0],["▁weapon",0.0],["▁stock",0.0],["▁analy",0.0],["▁Str",0.0],["▁picture",0.0],["▁Police",0.0],["ference",0.0],["▁century",0.0],["▁citizens",0.0],["▁onto",0.0],["▁expand",0.0],["▁hero",0.0],["▁Sol",0.0],["▁wild",0.0],["▁update",0.0],["▁customers",0.0],["ront",0.0],["def",0.0],["▁lik",0.0],["▁criminal",0.0],["▁Christian",0.0],["SP",0.0],["76",0.0],["▁leaving",0.0],["▁otherwise",0.0],["▁Dist",0.0],["▁basis",0.0],["52",0.0],["53",0.0],["icip",0.0],["▁Ber",0.0],["▁recommend",0.0],["▁floor",0.0],["▁crowd",0.0],["oles",0.0],["▁70",0.0],["▁central",0.0],["▁Ev",0.0],["▁dream",0.0],["▁download",0.0],["▁confir",0.0],["▁Thom",0.0],["▁window",0.0],["▁happens",0.0],["▁unit",0.0],["▁tend",0.0],["▁spl",0.0],["▁becomes",0.0],["▁fighting",0.0],["▁predict",0.0],["▁Press",0.0],["▁Power",0.0],["▁heavy",0.0],["aked",0.0],["▁fan",0.0],["orter",0.0],["ategy",0.0],["BA",0.0],["izes",0.0],["▁spend",0.0],["Here",0.0],["▁2007",0.0],["▁adop",0.0],["▁Ham",0.0],["▁football",0.0],["▁Port",0.0],["oday",0.0],["51",0.0],["ampions",0.0],["▁transfer",0.0],["ht",0.0],["▁38",0.0],["term",0.0],["acity",0.0],["▁bur",0.0],["],",0.0],["ternal",0.0],["rig",0.0],["but",0.0],["▁therefore",0.0],["▁Because",0.0],["resp",0.0],["rey",0.0],["▁mission",0.0],["Some",0.0],["▁noted",0.0],["▁assum",0.0],["▁disease",0.0],["▁edit",0.0],["▁progress",0.0],["rd",0.0],["▁Brown",0.0],["ocal",0.0],["▁adding",0.0],["▁raised",0.0],["▁Any",0.0],["▁tick",0.0],["▁seeing",0.0],["▁People",0.0],["▁agreement",0.0],["▁server",0.0],["▁wat",0.0],["▁debate",0.0],["▁supposed",0.0],["iling",0.0],["▁largest",0.0],["▁successful",0.0],["▁Pri",0.0],["▁Democratic",0.0],["▁jump",0.0],["▁Syria",0.0],["▁owners",0.0],["▁offers",0.0],["▁shooting",0.0],["▁effic",0.0],["sey",0.0],["▁haven",0.0],["verse",0.0],["tered",0.0],["▁Light",0.0],["imal",0.0],["▁Big",0.0],["▁defend",0.0],["▁beat",0.0],["▁records",0.0],["%)",0.0],["▁scen",0.0],["▁employees",0.0],["▁devices",0.0],["hem",0.0],["▁commer",0.0],["▁Mex",0.0],["▁benefit",0.0],["▁Prof",0.0],["▁illeg",0.0],["▁surface",0.0],["▁Also",0.0],["▁harm",0.0],["ingly",0.0],["wide",0.0],["▁Alex",0.0],["▁shut",0.0],["▁Cur",0.0],["▁lose",0.0],["pm",0.0],["▁challenge",0.0],["semb",0.0],["▁station",0.0],["▁intelligence",0.0],["▁accur",0.0],["▁Flor",0.0],["▁requires",0.0],["▁Mal",0.0],["bum",0.0],["▁hospital",0.0],["▁spirit",0.0],["▁offered",0.0],["▁produce",0.0],["▁Commun",0.0],["▁creating",0.0],["▁cris",0.0],["spect",0.0],["▁ended",0.0],["▁daily",0.0],["▁voters",0.0],["lands",0.0],["ias",0.0],["ih",0.0],["ona",0.0],["▁smart",0.0],["▁Office",0.0],["▁Lord",0.0],["rial",0.0],["▁Internet",0.0],["▁circum",0.0],["▁extremely",0.0],["'.",0.0],["▁opinion",0.0],["▁Mil",0.0],["▁gain",0.0],["BS",0.0],["▁Fin",0.0],["yp",0.0],["▁useful",0.0],["▁budget",0.0],["▁comfort",0.0],["isf",0.0],["▁background",0.0],["eline",0.0],["▁episode",0.0],["▁enemy",0.0],["▁trial",0.0],["▁establish",0.0],["date",0.0],["▁Cap",0.0],["▁continues",0.0],["▁showing",0.0],["▁Union",0.0],["with",0.0],["▁posted",0.0],["▁System",0.0],["▁eat",0.0],["rian",0.0],["▁rise",0.0],["▁Germany",0.0],["ils",0.0],["▁signed",0.0],["▁vill",0.0],["▁grand",0.0],["mor",0.0],["▁England",0.0],["▁projects",0.0],["umber",0.0],["▁conference",0.0],["za",0.0],["▁responsible",0.0],["▁Arab",0.0],["▁learned",0.0],["âĢĶâĢĶ",0.0],["ipping",0.0],["▁George",0.0],["OC",0.0],["▁returned",0.0],["▁Australia",0.0],["▁brief",0.0],["Qu",0.0],["▁brand",0.0],["illing",0.0],["abled",0.0],["▁highest",0.0],["▁train",0.0],["▁Commission",0.0],["while",0.0],["▁nom",0.0],["ception",0.0],["▁mut",0.0],["▁Blue",0.0],["▁incident",0.0],["vant",0.0],["86",0.0],["▁ID",0.0],["▁nuclear",0.0],["74",0.0],["▁Like",0.0],["▁RE",0.0],["▁Micro",0.0],["li",0.0],["mail",0.0],["▁charges",0.0],["89",0.0],["▁adjust",0.0],["ado",0.0],["▁earth",0.0],["NA",0.0],["▁prices",0.0],["PA",0.0],["▁draft",0.0],["▁runs",0.0],["▁candidate",0.0],["enses",0.0],["▁management",0.0],["▁Phil",0.0],["▁Miss",0.0],["▁teach",0.0],["gram",0.0],["▁understanding",0.0],["ait",0.0],["icago",0.0],["Add",0.0],["▁Ep",0.0],["secut",0.0],["▁separate",0.0],["▁instance",0.0],["▁eth",0.0],["▁unless",0.0],["********",0.0],["▁Fore",0.0],["inate",0.0],["▁operations",0.0],["Sp",0.0],["▁faith",0.0],["gar",0.0],["▁Church",0.0],["ronic",0.0],["▁config",0.0],["osure",0.0],["▁activities",0.0],["▁traditional",0.0],["▁36",0.0],["▁direction",0.0],["▁machine",0.0],["▁surround",0.0],["▁push",0.0],["unction",0.0],["▁EU",0.0],["▁easier",0.0],["▁argument",0.0],["GB",0.0],["▁micro",0.0],["▁spending",0.0],["izations",0.0],["▁theory",0.0],["adow",0.0],["▁calling",0.0],["▁Last",0.0],["▁der",0.0],["▁influence",0.0],["▁commit",0.0],["▁photo",0.0],["▁unc",0.0],["istry",0.0],["gn",0.0],["aste",0.0],["acks",0.0],["▁disp",0.0],["ady",0.0],["do",0.0],["▁Good",0.0],["▁`",0.0],["▁wish",0.0],["▁revealed",0.0],["ÂłÂł",0.0],["lig",0.0],["▁enforce",0.0],["▁Committee",0.0],["▁chem",0.0],["▁miles",0.0],["▁interested",0.0],["▁solution",0.0],["icy",0.0],["inct",0.0],["▁->",0.0],["▁Det",0.0],["▁removed",0.0],["▁compar",0.0],["eah",0.0],["▁plant",0.0],["▁Since",0.0],["▁achieve",0.0],["▁advantage",0.0],["▁slightly",0.0],["bing",0.0],["▁placed",0.0],["under",0.0],["2015",0.0],["▁Mad",0.0],["▁tim",0.0],["oses",0.0],["▁cru",0.0],["▁Rock",0.0],["▁mostly",0.0],["▁negative",0.0],["▁setting",0.0],["▁produced",0.0],["▁mur",0.0],["▁connection",0.0],["▁Mer",0.0],["▁driver",0.0],["▁executive",0.0],["▁assault",0.0],["▁born",0.0],["▁Ver",0.0],["tained",0.0],["▁structure",0.0],["▁reduce",0.0],["▁decades",0.0],["▁ded",0.0],["uke",0.0],["▁Many",0.0],["idden",0.0],["▁league",0.0],["Se",0.0],["▁join",0.0],["▁disco",0.0],["▁die",0.0],["cks",0.0],["actions",0.0],["▁assess",0.0],["agn",0.0],["▁goals",0.0],["ours",0.0],["IR",0.0],["▁senior",0.0],["iller",0.0],["mod",0.0],["ipment",0.0],["ocol",0.0],["uy",0.0],["▁Que",0.0],["▁parties",0.0],["irgin",0.0],["▁learning",0.0],["itable",0.0],["▁street",0.0],["▁camera",0.0],["App",0.0],["▁skills",0.0],["bre",0.0],["cious",0.0],["▁celebr",0.0],["▁Franc",0.0],["▁existing",0.0],["▁willing",0.0],["lor",0.0],["▁id",0.0],["▁Space",0.0],["▁critical",0.0],["▁La",0.0],["ortunately",0.0],["▁serve",0.0],["▁cold",0.0],["▁species",0.0],["TS",0.0],["▁animals",0.0],["▁Bay",0.0],["▁older",0.0],["▁Under",0.0],["estic",0.0],["▁Tre",0.0],["▁teacher",0.0],["▁prefer",0.0],["vis",0.0],["▁thread",0.0],["▁Matt",0.0],["▁manager",0.0],["ãĥ»",0.0],["▁professional",0.0],["▁Vol",0.0],["▁notes",0.0],["These",0.0],["ula",0.0],["▁fresh",0.0],["ented",0.0],["uzz",0.0],["edy",0.0],["clusion",0.0],["▁Rel",0.0],["▁doubt",0.0],["EO",0.0],["▁opened",0.0],["▁Bit",0.0],["Advertisement",0.0],["▁guess",0.0],["▁UN",0.0],["▁sequ",0.0],["▁explain",0.0],["otten",0.0],["▁attract",0.0],["aks",0.0],["▁string",0.0],["▁context",0.0],["ossible",0.0],["▁Republicans",0.0],["▁solid",0.0],["▁cities",0.0],["▁asking",0.0],["▁random",0.0],["ups",0.0],["uries",0.0],["arant",0.0],["dden",0.0],["gl",0.0],["▁Florida",0.0],["▁depend",0.0],["▁Scott",0.0],["▁33",0.0],["▁iT",0.0],["icon",0.0],["▁mentioned",0.0],["▁2000",0.0],["▁claimed",0.0],["▁definitely",0.0],["ulf",0.0],["▁core",0.0],["▁opening",0.0],["▁Const",0.0],["which",0.0],["▁Tra",0.0],["AG",0.0],["72",0.0],["▁believed",0.0],["ada",0.0],["▁48",0.0],["▁Security",0.0],["yright",0.0],["▁Pet",0.0],["▁Lou",0.0],["▁holding",0.0],["================",0.0],["▁ice",0.0],["▁brow",0.0],["▁authorities",0.0],["host",0.0],["word",0.0],["▁score",0.0],["▁Div",0.0],["▁cells",0.0],["▁transl",0.0],["▁neighbor",0.0],["▁remove",0.0],["uct",0.0],["▁district",0.0],["▁According",0.0],["▁worse",0.0],["▁concerns",0.0],["▁presidential",0.0],["▁policies",0.0],["▁Hall",0.0],["73",0.0],["▁hus",0.0],["AY",0.0],["▁2006",0.0],["▁Jud",0.0],["▁independent",0.0],["▁Justice",0.0],["iliar",0.0],["print",0.0],["ighter",0.0],["▁protection",0.0],["zen",0.0],["▁sudden",0.0],["house",0.0],["▁Jes",0.0],["PR",0.0],["▁Inf",0.0],["▁bul",0.0],["▁_",0.0],["▁Service",0.0],["▁PR",0.0],["▁strategy",0.0],["ffect",0.0],["▁girls",0.0],["▁missing",0.0],["oyal",0.0],["▁Team",0.0],["ulated",0.0],["▁dat",0.0],["▁politics",0.0],["abor",0.0],["According",0.0],["▁spell",0.0],["▁graph",0.0],["orthern",0.0],["TC",0.0],["Ab",0.0],["▁labor",0.0],["isher",0.0],["▁kick",0.0],["▁iTunes",0.0],["▁steps",0.0],["poses",0.0],["▁smaller",0.0],["En",0.0],["bert",0.0],["▁roll",0.0],["▁researchers",0.0],["▁closed",0.0],["▁transport",0.0],["▁lawy",0.0],["________________",0.0],["▁Chicago",0.0],["▁aspect",0.0],["▁none",0.0],["▁marriage",0.0],["96",0.0],["▁elements",0.0],["▁Fre",0.0],["▁Sal",0.0],["▁dram",0.0],["FC",0.0],["top",0.0],["equ",0.0],["▁hearing",0.0],["▁supported",0.0],["▁testing",0.0],["cohol",0.0],["▁massive",0.0],["▁stick",0.0],["▁guard",0.0],["isco",0.0],["phone",0.0],["From",0.0],["However",0.0],["▁border",0.0],["▁copy",0.0],["ography",0.0],["list",0.0],["71",0.0],["▁owner",0.0],["class",0.0],["ruit",0.0],["rate",0.0],["▁Once",0.0],["▁digital",0.0],["▁task",0.0],["ERS",0.0],["▁incred",0.0],["tes",0.0],["++",0.0],["▁France",0.0],["▁breat",0.0],["owl",0.0],["▁issued",0.0],["▁Western",0.0],["▁detect",0.0],["▁partners",0.0],["▁shared",0.0],["▁Call",0.0],["▁cancer",0.0],["ache",0.0],["ribe",0.0],["▁explained",0.0],["▁heat",0.0],["{\"",0.0],["▁investment",0.0],["▁Book",0.0],["▁wood",0.0],["▁tools",0.0],["▁Although",0.0],["▁belief",0.0],["▁crisis",0.0],["▁ge",0.0],["▁MP",0.0],["▁operation",0.0],["type",0.0],["~~",0.0],["ga",0.0],["▁contains",0.0],["anta",0.0],["▁express",0.0],["▁Group",0.0],["▁Journal",0.0],["ka",0.0],["▁amb",0.0],["▁USA",0.0],["▁finding",0.0],["▁funding",0.0],["how",0.0],["▁established",0.0],["ideos",0.0],["▁degree",0.0],["▁dangerous",0.0],["anging",0.0],["▁freedom",0.0],["pport",0.0],["outhern",0.0],["▁church",0.0],["▁catch",0.0],["▁Two",0.0],["▁presence",0.0],["▁Guard",0.0],["Up",0.0],["▁authority",0.0],["▁Project",0.0],["▁button",0.0],["▁consequ",0.0],["▁valid",0.0],["▁weak",0.0],["▁starts",0.0],["▁reference",0.0],["▁Mem",0.0],["\")",0.0],["UN",0.0],["orage",0.0],["▁Open",0.0],["▁collection",0.0],["ym",0.0],["gency",0.0],["▁beautiful",0.0],["ros",0.0],["▁tells",0.0],["▁waiting",0.0],["nel",0.0],["▁providing",0.0],["▁Democrats",0.0],["▁daughter",0.0],["▁master",0.0],["▁purposes",0.0],["▁Japanese",0.0],["▁equal",0.0],["▁turns",0.0],["▁documents",0.0],["▁watching",0.0],["Res",0.0],["▁ran",0.0],["2014",0.0],["▁reject",0.0],["▁Korea",0.0],["▁victims",0.0],["Level",0.0],["erences",0.0],["▁witness",0.0],["▁34",0.0],["▁reform",0.0],["coming",0.0],["▁occup",0.0],["▁caught",0.0],["▁traffic",0.0],["ading",0.0],["▁models",0.0],["ario",0.0],["▁served",0.0],["▁batter",0.0],["uate",0.0],["▁Secretary",0.0],["▁agreed",0.0],["▁truly",0.0],["ynam",0.0],["▁Ret",0.0],["▁units",0.0],["▁Research",0.0],["hand",0.0],["azine",0.0],["▁Mike",0.0],["▁variety",0.0],["otal",0.0],["▁amazing",0.0],["▁confirmed",0.0],["▁entirely",0.0],["▁purchase",0.0],["▁element",0.0],["▁cash",0.0],["▁determine",0.0],["De",0.0],["▁cars",0.0],["▁Wall",0.0],["âĸ",0.0],["▁views",0.0],["▁drugs",0.0],["▁department",0.0],["▁Step",0.0],["uit",0.0],["▁39",0.0],["asure",0.0],["▁Class",0.0],["▁covered",0.0],["▁Bank",0.0],["▁mere",0.0],["uana",0.0],["▁multi",0.0],["▁mix",0.0],["▁unlike",0.0],["levision",0.0],["▁stopped",0.0],["▁sem",0.0],["▁Gal",0.0],["ules",0.0],["▁wel",0.0],["▁Johnson",0.0],["la",0.0],["▁skill",0.0],["▁becoming",0.0],["rie",0.0],["▁appropriate",0.0],["fe",0.0],["ellow",0.0],["▁Prot",0.0],["ulate",0.0],["ocation",0.0],["▁weekend",0.0],["odies",0.0],["▁sites",0.0],["▁animal",0.0],["▁Tim",0.0],["▁scale",0.0],["▁charged",0.0],["▁instruct",0.0],["illa",0.0],["▁methods",0.0],["▁cert",0.0],["▁judge",0.0],["▁Hel",0.0],["▁dollars",0.0],["▁standing",0.0],["▁Squ",0.0],["▁debt",0.0],["liam",0.0],["▁driving",0.0],["▁Sum",0.0],["▁Edition",0.0],["▁album",0.0],["andon",0.0],["IF",0.0],["▁Uk",0.0],["63",0.0],["ader",0.0],["▁commercial",0.0],["esh",0.0],["▁Government",0.0],["▁discovered",0.0],["▁output",0.0],["▁Hillary",0.0],["▁Carol",0.0],["▁2005",0.0],["▁abuse",0.0],["ancing",0.0],["▁switch",0.0],["▁annual",0.0],["Tw",0.0],["▁stated",0.0],["agement",0.0],["inner",0.0],["▁democr",0.0],["▁residents",0.0],["▁allowing",0.0],["▁factors",0.0],["odd",0.0],["▁fuck",0.0],["emies",0.0],["▁occurred",0.0],["oti",0.0],["▁north",0.0],["▁Public",0.0],["▁injury",0.0],["▁insurance",0.0],["CL",0.0],["olly",0.0],["ãĢ",0.0],["▁repeated",0.0],["▁arms",0.0],["anged",0.0],["▁construction",0.0],["▁fle",0.0],["PU",0.0],["icians",0.0],["▁forms",0.0],["▁McC",0.0],["antic",0.0],["▁mental",0.0],["pire",0.0],["▁equipment",0.0],["▁fant",0.0],["▁discussion",0.0],["▁regarding",0.0],["kin",0.0],["arp",0.0],["▁chair",0.0],["ogue",0.0],["▁proceed",0.0],["▁Id",0.0],["Our",0.0],["▁murder",0.0],["Man",0.0],["▁49",0.0],["asp",0.0],["▁supply",0.0],["▁input",0.0],["▁wealth",0.0],["liament",0.0],["▁proced",0.0],["orial",0.0],["▁Stat",0.0],["▁NFL",0.0],["hens",0.0],["▁Institute",0.0],["▁putting",0.0],["ournament",0.0],["etic",0.0],["▁located",0.0],["▁kid",0.0],["eria",0.0],["run",0.0],["▁princ",0.0],["▁!",0.0],["going",0.0],["▁Bet",0.0],["▁clot",0.0],["▁telling",0.0],["▁proposed",0.0],["iot",0.0],["orry",0.0],["▁funds",0.0],["gment",0.0],["▁Life",0.0],["▁baby",0.0],["▁Back",0.0],["▁spoke",0.0],["Image",0.0],["▁earn",0.0],["▁AT",0.0],["gu",0.0],["▁exchange",0.0],["▁Lin",0.0],["oving",0.0],["▁pair",0.0],["More",0.0],["azon",0.0],["▁arrested",0.0],["▁killing",0.0],["can",0.0],["▁Card",0.0],["yd",0.0],["▁identified",0.0],["▁mobile",0.0],["▁thanks",0.0],["onym",0.0],["▁Form",0.0],["▁hundreds",0.0],["▁Chris",0.0],["▁Cat",0.0],["▁trend",0.0],["hat",0.0],["▁Av",0.0],["oman",0.0],["▁electric",0.0],["▁Wil",0.0],["SE",0.0],["Of",0.0],["▁restaur",0.0],["oted",0.0],["▁trig",0.0],["▁nine",0.0],["▁bomb",0.0],["Why",0.0],["Â¯",0.0],["▁coverage",0.0],["▁appeal",0.0],["▁Robert",0.0],["▁Sup",0.0],["▁finished",0.0],["▁flow",0.0],["▁deliver",0.0],["▁calcul",0.0],["▁photos",0.0],["▁phil",0.0],["▁pieces",0.0],["▁appre",0.0],["kes",0.0],["▁rough",0.0],["Do",0.0],["▁partner",0.0],["▁concerned",0.0],["▁37",0.0],["▁Gen",0.0],["Col",0.0],["ctors",0.0],["▁=>",0.0],["state",0.0],["▁suggested",0.0],["▁Force",0.0],["CE",0.0],["▁herself",0.0],["▁Plan",0.0],["works",0.0],["ooth",0.0],["rency",0.0],["▁corner",0.0],["▁husband",0.0],["▁internet",0.0],["▁Aut",0.0],["ems",0.0],["osen",0.0],["▁Atl",0.0],["gen",0.0],["▁balance",0.0],["62",0.0],["▁sounds",0.0],["text",0.0],["▁arr",0.0],["oves",0.0],["▁millions",0.0],["▁radio",0.0],["▁satisf",0.0],["▁Dam",0.0],["Mr",0.0],["Go",0.0],["Spe",0.0],["▁combat",0.0],["rant",0.0],["▁Gree",0.0],["▁fuel",0.0],["▁distance",0.0],["▁tests",0.0],["▁decre",0.0],["▁Er",0.0],["▁managed",0.0],["DS",0.0],["▁tit",0.0],["▁measures",0.0],["▁Liber",0.0],["▁attend",0.0],["ashed",0.0],["▁Jose",0.0],["▁Night",0.0],["dit",0.0],["▁Nov",0.0],["▁End",0.0],["outs",0.0],["▁generation",0.0],["▁advoc",0.0],["yth",0.0],["▁conversation",0.0],["▁Sky",0.0],["active",0.0],["cel",0.0],["rier",0.0],["▁Frank",0.0],["▁gender",0.0],["▁concent",0.0],["▁carried",0.0],["anda",0.0],["▁Virgin",0.0],["▁arrived",0.0],["icide",0.0],["aded",0.0],["▁failure",0.0],["▁minimum",0.0],["lets",0.0],["▁worst",0.0],["▁keeping",0.0],["▁intended",0.0],["▁illegal",0.0],["▁subsc",0.0],["▁determined",0.0],["▁trip",0.0],["Yes",0.0],["▁raise",0.0],["▁~",0.0],["▁feels",0.0],["▁package",0.0],["▁Jo",0.0],["hi",0.0],["2016",0.0],["real",0.0],["▁fra",0.0],["▁symb",0.0],["Me",0.0],["ucky",0.0],["pret",0.0],["▁Kh",0.0],["▁Edit",0.0],["▁Web",0.0],["emic",0.0],["▁Color",0.0],["▁justice",0.0],["Int",0.0],["▁farm",0.0],["cknow",0.0],["\">",0.0],["eless",0.0],["▁reduced",0.0],["▁500",0.0],["xx",0.0],["▁Rad",0.0],["▁Wood",0.0],["▁clin",0.0],["▁hyp",0.0],["iler",0.0],["ura",0.0],["kins",0.0],["85",0.0],["61",0.0],["▁Their",0.0],["▁Mary",0.0],["▁san",0.0],["▁novel",0.0],["▁Who",0.0],["▁capacity",0.0],["▁impossible",0.0],["▁plays",0.0],["▁minister",0.0],["ijuana",0.0],["icate",0.0],["▁Set",0.0],["▁fram",0.0],["▁ing",0.0],["▁communities",0.0],["▁FBI",0.0],["ita",0.0],["▁bon",0.0],["▁strateg",0.0],["▁interests",0.0],["lock",0.0],["gers",0.0],["mas",0.0],["▁AND",0.0],["▁conflict",0.0],["▁requirements",0.0],["▁sac",0.0],["▁operating",0.0],["ini",0.0],["related",0.0],["▁committed",0.0],["▁relatively",0.0],["▁south",0.0],["Â¯Â¯",0.0],["▁afford",0.0],["▁identity",0.0],["▁decisions",0.0],["▁accused",0.0],["place",0.0],["▁victory",0.0],["och",0.0],["iat",0.0],["Name",0.0],["Com",0.0],["tion",0.0],["eds",0.0],["▁seek",0.0],["▁tight",0.0],["▁Images",0.0],["▁initi",0.0],["▁humans",0.0],["▁familiar",0.0],["▁audience",0.0],["▁internal",0.0],["venture",0.0],["▁sides",0.0],["▁TO",0.0],["▁dim",0.0],["▁conclud",0.0],["▁appoint",0.0],["▁enforcement",0.0],["▁Jim",0.0],["▁Association",0.0],["▁circumst",0.0],["▁Canadian",0.0],["▁joined",0.0],["▁differences",0.0],["▁Los",0.0],["▁protest",0.0],["▁twice",0.0],["win",0.0],["▁glass",0.0],["arsh",0.0],["▁Army",0.0],["▁expression",0.0],["▁decide",0.0],["▁planning",0.0],["ania",0.0],["▁handle",0.0],["▁Microsoft",0.0],["▁Nor",0.0],["▁maximum",0.0],["▁Rev",0.0],["▁sea",0.0],["▁eval",0.0],["▁helps",0.0],["ref",0.0],["▁bound",0.0],["▁mouth",0.0],["▁standards",0.0],["▁clim",0.0],["▁Camp",0.0],["▁Fox",0.0],["cles",0.0],["▁army",0.0],["▁Techn",0.0],["acking",0.0],["xy",0.0],["SS",0.0],["▁42",0.0],["▁bug",0.0],["▁Ukrain",0.0],["▁Max",0.0],["▁Jones",0.0],["▁Show",0.0],["lo",0.0],["▁planet",0.0],["▁75",0.0],["▁winning",0.0],["▁faster",0.0],["▁spect",0.0],["▁broken",0.0],["TR",0.0],["▁defined",0.0],["▁healthy",0.0],["▁competition",0.0],["https",0.0],["▁Island",0.0],["▁Fe",0.0],["▁announce",0.0],["▁Cup",0.0],["▁Instead",0.0],["▁client",0.0],["▁possibly",0.0],["section",0.0],["ocket",0.0],["look",0.0],["▁finish",0.0],["▁crew",0.0],["▁reserv",0.0],["▁editor",0.0],["▁hate",0.0],["▁sale",0.0],["▁controvers",0.0],["▁pages",0.0],["wing",0.0],["▁numer",0.0],["▁opposition",0.0],["▁2004",0.0],["▁refuge",0.0],["▁flight",0.0],["▁apart",0.0],["▁Lat",0.0],["Americ",0.0],["▁Africa",0.0],["▁applications",0.0],["▁Palest",0.0],["▁Bur",0.0],["▁gar",0.0],["▁Social",0.0],["▁upgr",0.0],["▁shape",0.0],["▁speaking",0.0],["ansion",0.0],["ao",0.0],["▁Sn",0.0],["▁worry",0.0],["▁Britain",0.0],["Please",0.0],["roud",0.0],["▁hun",0.0],["▁introduced",0.0],["▁diet",0.0],["Ind",0.0],["▁Second",0.0],["▁functions",0.0],["uts",0.0],["▁Each",0.0],["▁Jeff",0.0],["▁stress",0.0],["▁accounts",0.0],["▁guarant",0.0],["▁Ann",0.0],["edia",0.0],["▁honest",0.0],["▁tree",0.0],["▁African",0.0],["▁Bush",0.0],["},",0.0],["▁sch",0.0],["▁Only",0.0],["▁fif",0.0],["igan",0.0],["▁exercise",0.0],["▁Exp",0.0],["▁scientists",0.0],["▁legislation",0.0],["▁Work",0.0],["▁Spr",0.0],["ÃĤ",0.0],["▁Human",0.0],["▁è",0.0],["▁survey",0.0],["▁rich",0.0],["rip",0.0],["▁maintain",0.0],["▁flo",0.0],["▁leadership",0.0],["stream",0.0],["▁Islamic",0.0],["▁01",0.0],["▁College",0.0],["▁magic",0.0],["▁Prime",0.0],["▁figures",0.0],["2017",0.0],["inder",0.0],["xual",0.0],["▁Dead",0.0],["▁absolutely",0.0],["▁fourth",0.0],["▁presented",0.0],["respond",0.0],["rible",0.0],["▁alcohol",0.0],["ato",0.0],["▁DE",0.0],["porary",0.0],["▁grab",0.0],["▁vari",0.0],["▁quant",0.0],["▁Photo",0.0],["▁plus",0.0],["rick",0.0],["arks",0.0],["▁alternative",0.0],["▁pil",0.0],["▁approx",0.0],["that",0.0],["▁objects",0.0],["▁Ro",0.0],["▁Android",0.0],["▁significantly",0.0],["▁Road",0.0],["kay",0.0],["Read",0.0],["avor",0.0],["▁acknow",0.0],["▁HD",0.0],["▁Sing",0.0],["Or",0.0],["▁Mont",0.0],["▁uns",0.0],["prof",0.0],["▁negoti",0.0],["▁Arch",0.0],["iki",0.0],["▁television",0.0],["▁Jewish",0.0],["▁committee",0.0],["▁motor",0.0],["▁appearance",0.0],["▁sitting",0.0],["▁strike",0.0],["▁Down",0.0],["comp",0.0],["▁Hist",0.0],["▁fold",0.0],["acement",0.0],["▁Louis",0.0],["▁belong",0.0],["▁âĢ¢",0.0],["▁mort",0.0],["▁prepared",0.0],["▁64",0.0],["▁Master",0.0],["▁indeed",0.0],["▁Den",0.0],["▁rent",0.0],["TA",0.0],["ourney",0.0],["arc",0.0],["Su",0.0],["97",0.0],["▁advice",0.0],["▁changing",0.0],["▁listed",0.0],["▁launched",0.0],["isation",0.0],["▁Peter",0.0],["ishes",0.0],["▁lived",0.0],["▁Mel",0.0],["▁Supreme",0.0],["▁Federal",0.0],["▁);",0.0],["ructure",0.0],["▁sets",0.0],["▁philos",0.0],["uous",0.0],["▁Âł",0.0],["▁applied",0.0],["▁NOT",0.0],["▁housing",0.0],["▁Mount",0.0],["▁odd",0.0],["▁sust",0.0],["DA",0.0],["fficient",0.0],["▁?",0.0],["olved",0.0],["▁powers",0.0],["▁thr",0.0],["▁remaining",0.0],["▁Water",0.0],["LC",0.0],["▁causes",0.0],["ãģ®",0.0],["▁manner",0.0],["ads",0.0],["▁suggests",0.0],["▁ends",0.0],["standing",0.0],["fig",0.0],["▁Dun",0.0],["idth",0.0],["▁gay",0.0],["▁termin",0.0],["▁Angeles",0.0],["MS",0.0],["▁scientific",0.0],["▁coal",0.0],["apers",0.0],["bar",0.0],["▁Thomas",0.0],["▁sym",0.0],["▁Run",0.0],["this",0.0],["PC",0.0],["igrants",0.0],["▁minute",0.0],["▁District",0.0],["cellent",0.0],["▁leaves",0.0],["▁completed",0.0],["amin",0.0],["▁focused",0.0],["▁monitor",0.0],["▁vehicles",0.0],["MA",0.0],["▁Mass",0.0],["▁Grand",0.0],["▁affected",0.0],["itutional",0.0],["▁construct",0.0],["▁follows",0.0],["▁ton",0.0],["reens",0.0],["▁homes",0.0],["▁Ext",0.0],["▁Level",0.0],["rast",0.0],["▁Ir",0.0],["▁elim",0.0],["▁largely",0.0],["▁Joe",0.0],["▁votes",0.0],["alls",0.0],["▁businesses",0.0],["▁Foundation",0.0],["▁Central",0.0],["▁yards",0.0],["▁materials",0.0],["ulner",0.0],["▁guide",0.0],["▁closer",0.0],["ums",0.0],["▁sports",0.0],["eder",0.0],["Just",0.0],["▁taxes",0.0],["84",0.0],["▁Old",0.0],["▁decade",0.0],["ola",0.0],["▁vir",0.0],["▁dropped",0.0],["▁delay",0.0],["itect",0.0],["▁secure",0.0],["stein",0.0],["level",0.0],["▁treated",0.0],["▁filed",0.0],["aine",0.0],["▁van",0.0],["▁mir",0.0],["▁column",0.0],["icted",0.0],["eper",0.0],["▁rot",0.0],["▁consult",0.0],["▁entry",0.0],["▁marijuana",0.0],["▁Dou",0.0],["▁apparently",0.0],["oking",0.0],["clusive",0.0],["▁increases",0.0],["ano",0.0],["▁specifically",0.0],["▁tele",0.0],["ensions",0.0],["▁religion",0.0],["abilities",0.0],["▁frame",0.0],["▁Note",0.0],["▁Lee",0.0],["▁helping",0.0],["▁edge",0.0],["oston",0.0],["▁organizations",0.0],["Ãĥ",0.0],["▁Both",0.0],["hips",0.0],["▁bigger",0.0],["▁boost",0.0],["▁Stand",0.0],["▁row",0.0],["uls",0.0],["abase",0.0],["▁rid",0.0],["Let",0.0],["aren",0.0],["rave",0.0],["▁stret",0.0],["PD",0.0],["▁vision",0.0],["▁wearing",0.0],["▁appreci",0.0],["▁award",0.0],["▁Use",0.0],["▁factor",0.0],["war",0.0],["ulations",0.0],[")(",0.0],["▁god",0.0],["▁territ",0.0],["▁param",0.0],["asts",0.0],["87",0.0],["▁enemies",0.0],["▁Games",0.0],["FF",0.0],["▁accident",0.0],["Well",0.0],["▁Martin",0.0],["TER",0.0],["▁ath",0.0],["▁Hell",0.0],["▁forg",0.0],["▁veter",0.0],["▁Medic",0.0],["free",0.0],["▁stars",0.0],["▁expensive",0.0],["▁acad",0.0],["rawn",0.0],["▁Whe",0.0],["▁lock",0.0],["▁format",0.0],["▁soldiers",0.0],["sm",0.0],["▁agent",0.0],["▁responsibility",0.0],["ora",0.0],["▁Science",0.0],["▁rapid",0.0],["▁tough",0.0],["▁Jesus",0.0],["▁believes",0.0],["ML",0.0],["▁wear",0.0],["lete",0.0],["ÃĥÃĤ",0.0],["▁Dri",0.0],["▁commission",0.0],["▁Bob",0.0],["Oh",0.0],["aped",0.0],["▁warm",0.0],["ÃĥÃĤÃĥÃĤ",0.0],["▁2003",0.0],["ortion",0.0],["▁hasn",0.0],["uster",0.0],["▁univers",0.0],["▁Ill",0.0],["▁king",0.0],["ologies",0.0],["94",0.0],["▁Tem",0.0],["▁Mos",0.0],["▁patient",0.0],["▁Mexico",0.0],["cean",0.0],["▁Death",0.0],["▁Sanders",0.0],["you",0.0],["▁Cast",0.0],["▁Company",0.0],["pty",0.0],["▁happening",0.0],["FP",0.0],["▁Battle",0.0],["▁bought",0.0],["Am",0.0],["Mod",0.0],["Us",0.0],["uters",0.0],["▁Cre",0.0],["▁Those",0.0],["▁44",0.0],["iser",0.0],["▁soul",0.0],["▁Top",0.0],["▁Harry",0.0],["▁Aw",0.0],["▁seat",0.0],["ffee",0.0],["▁revolution",0.0],["▁(\"",0.0],["▁During",0.0],["ette",0.0],["▁ring",0.0],["▁offensive",0.0],["▁returns",0.0],["▁videos",0.0],["▁discl",0.0],["▁famous",0.0],["enced",0.0],["▁Sign",0.0],["▁River",0.0],["▁300",0.0],["PM",0.0],["▁Bus",0.0],["▁CH",0.0],["▁candidates",0.0],["arden",0.0],["▁percentage",0.0],["▁visual",0.0],["▁thank",0.0],["▁trouble",0.0],["nergy",0.0],["▁2001",0.0],["▁prove",0.0],["ashion",0.0],["▁enh",0.0],["▁Long",0.0],["UM",0.0],["▁connected",0.0],["▁possibility",0.0],["Over",0.0],["▁expert",0.0],["▁library",0.0],["arts",0.0],["▁Director",0.0],["▁fellow",0.0],["92",0.0],["irty",0.0],["▁dry",0.0],["▁signs",0.0],["▁Love",0.0],["▁quiet",0.0],["foot",0.0],["▁pure",0.0],["▁Hun",0.0],["▁filled",0.0],["phas",0.0],["▁Elect",0.0],["endment",0.0],["▁Expl",0.0],["▁unable",0.0],["ns",0.0],["mo",0.0],["▁vast",0.0],["obe",0.0],["▁identify",0.0],["apping",0.0],["▁Carolina",0.0],["gress",0.0],["▁prote",0.0],["▁fish",0.0],["▁circumstances",0.0],["razy",0.0],["▁Phot",0.0],["▁bodies",0.0],["▁Mur",0.0],["▁developing",0.0],["▁AR",0.0],["▁experienced",0.0],["▁substant",0.0],["▁Board",0.0],["esome",0.0],["▁domestic",0.0],["▁combined",0.0],["▁Put",0.0],["▁chemical",0.0],["▁Child",0.0],["▁pool",0.0],["▁Cy",0.0],["▁egg",0.0],["cons",0.0],["sters",0.0],["▁hurt",0.0],["▁markets",0.0],["▁conservative",0.0],["▁supporters",0.0],["▁agencies",0.0],["idel",0.0],["Ob",0.0],["urb",0.0],["▁43",0.0],["▁Defense",0.0],["ye",0.0],["▁Ap",0.0],["dule",0.0],["▁temperature",0.0],["▁conducted",0.0],["▁Chief",0.0],["▁pulled",0.0],["▁fol",0.0],["Last",0.0],["onto",0.0],["osis",0.0],["VER",0.0],["Des",0.0],["▁Pan",0.0],["First",0.0],["▁advance",0.0],["▁license",0.0],["rors",0.0],["▁Jon",0.0],["▁imagine",0.0],["▁hell",0.0],["▁fixed",0.0],["▁incor",0.0],["osite",0.0],["▁Log",0.0],["icken",0.0],["]:",0.0],["▁surprise",0.0],["hab",0.0],["▁craft",0.0],["olt",0.0],["▁Jul",0.0],["▁dial",0.0],["▁relevant",0.0],["▁entered",0.0],["▁leads",0.0],["▁AD",0.0],["▁Clean",0.0],["▁pictures",0.0],["essor",0.0],["▁alt",0.0],["▁paying",0.0],["Per",0.0],["▁Market",0.0],["▁updates",0.0],["amily",0.0],["▁Type",0.0],["▁Home",0.0],["▁55",0.0],["sembly",0.0],["rome",0.0],["83",0.0],["▁greatest",0.0],["▁height",0.0],["▁heav",0.0],["aints",0.0],["▁listen",0.0],["aser",0.0],["▁SH",0.0],["▁capable",0.0],["acle",0.0],["▁perspect",0.0],["inating",0.0],["▁offering",0.0],["rypt",0.0],["▁Develop",0.0],["abin",0.0],["rc",0.0],["▁bright",0.0],["alty",0.0],["arrow",0.0],["▁suppl",0.0],["inding",0.0],["acked",0.0],["gypt",0.0],["▁Another",0.0],["pg",0.0],["▁Virginia",0.0],["▁Lu",0.0],["▁planned",0.0],["▁pit",0.0],["▁sweet",0.0],["Type",0.0],["▁Di",0.0],["▁typically",0.0],["▁Francisco",0.0],["▁prospect",0.0],["▁Dan",0.0],["▁teen",0.0],["rees",0.0],["▁sched",0.0],["▁hol",0.0],["▁scr",0.0],["▁lots",0.0],["life",0.0],["▁newsp",0.0],["▁forget",0.0],["▁None",0.0],["▁Middle",0.0],["▁Ryan",0.0],["edd",0.0],["▁severe",0.0],["▁suit",0.0],["ller",0.0],["93",0.0],["▁correspond",0.0],["▁explos",0.0],["uations",0.0],["▁flag",0.0],["game",0.0],["rid",0.0],["▁prin",0.0],["▁Data",0.0],["▁deploy",0.0],["▁Enter",0.0],["suit",0.0],["ghan",0.0],["▁Men",0.0],["▁thoughts",0.0],["▁matters",0.0],["▁adapt",0.0],["▁Ari",0.0],["▁fill",0.0],["▁forth",0.0],["▁sam",0.0],["▁41",0.0],["▁payment",0.0],["▁Hor",0.0],["▁spring",0.0],["duc",0.0],["▁losing",0.0],["▁bringing",0.0],["FO",0.0],["ala",0.0],["▁distribution",0.0],["hered",0.0],["bour",0.0],["▁Israeli",0.0],["oma",0.0],["▁combination",0.0],["▁plenty",0.0],["VE",0.0],["Can",0.0],["▁Haw",0.0],["▁perman",0.0],["▁Special",0.0],["▁tow",0.0],["▁seeking",0.0],["▁examples",0.0],["▁classes",0.0],["cr",0.0],["▁beer",0.0],["▁moves",0.0],["▁IP",0.0],["▁Kn",0.0],["▁panel",0.0],["Even",0.0],["▁properly",0.0],["▁ris",0.0],["▁plug",0.0],["▁estimated",0.0],["Every",0.0],["▁defensive",0.0],["agraph",0.0],["▁pregn",0.0],["▁instit",0.0],["▁Vict",0.0],["▁volume",0.0],["▁positions",0.0],["▁links",0.0],["▁Program",0.0],["▁Week",0.0],["agues",0.0],["▁transform",0.0],["ker",0.0],["▁CEO",0.0],["▁cas",0.0],["▁opponent",0.0],["▁tweet",0.0],["▁Code",0.0],["▁shop",0.0],["▁fly",0.0],["▁talks",0.0],["▁bag",0.0],["Phone",0.0],["▁aid",0.0],["▁plants",0.0],["▁65",0.0],["▁attorney",0.0],["arters",0.0],["quest",0.0],["▁Magic",0.0],["▁begins",0.0],["▁myster",0.0],["▁environmental",0.0],["▁storage",0.0],["NN",0.0],["▁marg",0.0],["▁ske",0.0],["▁metal",0.0],["elly",0.0],["▁ordered",0.0],["▁remained",0.0],["▁loved",0.0],["▁prompt",0.0],["▁updated",0.0],["▁experts",0.0],["▁walking",0.0],["▁ancient",0.0],["▁performed",0.0],["ATE",0.0],["▁neither",0.0],["iency",0.0],["▁manufacture",0.0],["▁Pak",0.0],["▁selected",0.0],["▁mine",0.0],["▁ultimately",0.0],["▁explan",0.0],["▁label",0.0],["▁Services",0.0],["ributed",0.0],["Trump",0.0],["▁syn",0.0],["▁Ult",0.0],["SC",0.0],["▁meat",0.0],["▁giant",0.0],["▁Wars",0.0],["▁ON",0.0],["▁adm",0.0],["▁interpret",0.0],["▁evening",0.0],["▁evil",0.0],["▁Boston",0.0],["▁Wild",0.0],["▁Ã",0.0],["▁Bitcoin",0.0],["▁Amazon",0.0],["Dr",0.0],["▁Information",0.0],["▁obviously",0.0],["▁advanced",0.0],["Photo",0.0],["olar",0.0],["▁weather",0.0],["▁symbol",0.0],["▁sole",0.0],["▁potentially",0.0],["oster",0.0],["▁originally",0.0],["mun",0.0],["300",0.0],["aze",0.0],["essions",0.0],["▁deck",0.0],["▁stood",0.0],["▁youth",0.0],["▁Bern",0.0],["Rep",0.0],["▁Test",0.0],["▁basically",0.0],["otic",0.0],["▁involve",0.0],["olit",0.0],["lyn",0.0],["See",0.0],["▁aircraft",0.0],["▁confirm",0.0],["EW",0.0],["▁messages",0.0],["▁Richard",0.0],["▁kit",0.0],["▁prohib",0.0],["▁vulner",0.0],["isters",0.0],["▁existence",0.0],["▁turning",0.0],["▁SP",0.0],["▁desire",0.0],["▁flat",0.0],["▁ment",0.0],["season",0.0],["anges",0.0],["▁neighborhood",0.0],["▁Lake",0.0],["ATION",0.0],["▁pointed",0.0],["bur",0.0],["▁innov",0.0],["ucks",0.0],["UL",0.0],["▁professor",0.0],["▁expressed",0.0],["AB",0.0],["icious",0.0],["▁2002",0.0],["▁Dev",0.0],["▁session",0.0],["▁bare",0.0],["sen",0.0],["▁diss",0.0],["▁Cath",0.0],["▁Pass",0.0],["▁Point",0.0],["▁doctor",0.0],["orrow",0.0],["ailed",0.0],["▁Rub",0.0],["▁DC",0.0],["▁Charl",0.0],["person",0.0],["▁writer",0.0],["ighters",0.0],["ureau",0.0],["▁oblig",0.0],["▁recorded",0.0],["▁broke",0.0],["▁orders",0.0],["ilty",0.0],["▁motion",0.0],["inity",0.0],["law",0.0],["adium",0.0],["▁immigration",0.0],["▁contrast",0.0],["▁batt",0.0],["▁excellent",0.0],["▁technical",0.0],["ami",0.0],["▁tun",0.0],["▁cloud",0.0],["▁Year",0.0],["geon",0.0],["▁creation",0.0],["▁strange",0.0],["▁auth",0.0],["▁fort",0.0],["born",0.0],["▁extent",0.0],["▁Today",0.0],["▁Club",0.0],["▁rain",0.0],["▁sample",0.0],["▁accepted",0.0],["▁tact",0.0],["▁fired",0.0],["▁Son",0.0],["▁stands",0.0],["▁boot",0.0],["▁47",0.0],["▁statements",0.0],["▁versions",0.0],["▁selling",0.0],["ounded",0.0],["▁1990",0.0],["▁weren",0.0],["▁Watch",0.0],["▁experiment",0.0],["Post",0.0],["▁retail",0.0],["uled",0.0],["Inst",0.0],["unte",0.0],["ãĥ¼",0.0],["▁depart",0.0],["▁bond",0.0],["ivery",0.0],["ompl",0.0],["▁reaction",0.0],["▁Syrian",0.0],["▁Pac",0.0],["apped",0.0],["aniel",0.0],["DP",0.0],["▁resolution",0.0],["▁react",0.0],["▁approved",0.0],["onom",0.0],["mond",0.0],["▁Offic",0.0],["---",0.0],["▁replace",0.0],["▁tack",0.0],["▁sport",0.0],["▁chain",0.0],["▁emergency",0.0],["rad",0.0],["▁Palestin",0.0],["▁46",0.0],["▁automatically",0.0],["▁route",0.0],["▁pal",0.0],["▁banks",0.0],["▁Paris",0.0],["▁Media",0.0],["road",0.0],["icing",0.0],["ixt",0.0],["isted",0.0],["▁grew",0.0],["▁coord",0.0],["▁Where",0.0],["omin",0.0],["▁subs",0.0],["ï¿½ï¿½",0.0],["▁Â±",0.0],["▁corporate",0.0],["▁selection",0.0],["noon",0.0],["▁Report",0.0],["cs",0.0],["cluding",0.0],["orders",0.0],["anche",0.0],["▁Its",0.0],["▁slowly",0.0],["▁Egypt",0.0],["▁Acc",0.0],["▁colle",0.0],["iques",0.0],["EX",0.0],["▁attempts",0.0],["url",0.0],["▁Cross",0.0],["▁findings",0.0],["▁SC",0.0],["▁OR",0.0],["▁index",0.0],["ensity",0.0],["▁Way",0.0],["▁Land",0.0],["▁shock",0.0],["dis",0.0],["▁dynam",0.0],["▁cart",0.0],["mosp",0.0],["Since",0.0],["iest",0.0],["▁Boy",0.0],["▁storm",0.0],["▁Contin",0.0],["2013",0.0],["hew",0.0],["ilit",0.0],["▁essential",0.0],["iquid",0.0],["Other",0.0],["ivered",0.0],["▁reasonable",0.0],["Act",0.0],["▁subsequ",0.0],["▁Pack",0.0],["▁Fort",0.0],["▁considering",0.0],["▁university",0.0],["log",0.0],["▁married",0.0],["▁illust",0.0],["▁True",0.0],["£ı",0.0],["▁numerous",0.0],["rastructure",0.0],["▁seriously",0.0],["▁referred",0.0],["ua",0.0],["▁consistent",0.0],["onna",0.0],["▁Real",0.0],["ruption",0.0],["ciples",0.0],["▁facts",0.0],["91",0.0],["otes",0.0],["erg",0.0],["Then",0.0],["▁accompl",0.0],["Note",0.0],["▁revenue",0.0],["▁passing",0.0],["▁mal",0.0],["een",0.0],["▁Yet",0.0],["▁gather",0.0],["terday",0.0],["ework",0.0],["▁Author",0.0],["Pe",0.0],["▁optim",0.0],["▁rub",0.0],["▁è£ı",0.0],["▁unknown",0.0],["stone",0.0],["▁union",0.0],["olve",0.0],["▁opportunities",0.0],["▁browser",0.0],["▁Wal",0.0],["▁Cost",0.0],["▁reporting",0.0],["sts",0.0],["pet",0.0],["▁sand",0.0],["▁suddenly",0.0],["▁surprising",0.0],["▁VR",0.0],["▁somewhat",0.0],["▁Bas",0.0],["ulture",0.0],["izz",0.0],["▁CD",0.0],["▁challenges",0.0],["▁settings",0.0],["▁experiences",0.0],["▁Full",0.0],["▁cann",0.0],["▁receiving",0.0],["EST",0.0],["▁joint",0.0],["▁cultural",0.0],["▁ast",0.0],["82",0.0],["astern",0.0],["ceived",0.0],["▁Cru",0.0],["▁bull",0.0],["pired",0.0],["amm",0.0],["▁facing",0.0],["power",0.0],["▁boss",0.0],["▁Hol",0.0],["▁instr",0.0],["▁increasingly",0.0],["▁shift",0.0],["▁streets",0.0],["▁Williams",0.0],["abb",0.0],["▁lie",0.0],["▁laugh",0.0],["▁Ca",0.0],["PL",0.0],["▁adults",0.0],["▁customer",0.0],["▁obtained",0.0],["▁supporting",0.0],["html",0.0],["fire",0.0],["▁detailed",0.0],["▁picked",0.0],["▁Right",0.0],["lder",0.0],["EE",0.0],["stood",0.0],["▁Kim",0.0],["▁wire",0.0],["▁sight",0.0],["▁developers",0.0],["▁persons",0.0],["▁sad",0.0],["▁cup",0.0],["▁warning",0.0],["▁boys",0.0],["long",0.0],["▁bird",0.0],["fo",0.0],["▁wal",0.0],["▁observed",0.0],["▁zone",0.0],["iveness",0.0],["▁channel",0.0],["cript",0.0],["▁refused",0.0],["▁Again",0.0],["▁suc",0.0],["▁spokesman",0.0],["▁Ref",0.0],["rite",0.0],["ouston",0.0],["ãĥ³",0.0],["▁Sher",0.0],["▁acts",0.0],["▁Name",0.0],["▁struggle",0.0],["arry",0.0],["ometimes",0.0],["▁discrim",0.0],["HT",0.0],["▁category",0.0],["▁realize",0.0],["▁employee",0.0],["▁Afghan",0.0],["enger",0.0],["▁guns",0.0],["▁Steve",0.0],["▁Mot",0.0],["▁Ol",0.0],["oked",0.0],["▁thick",0.0],["▁fairly",0.0],["illy",0.0],["▁surve",0.0],["▁Mat",0.0],["weight",0.0],["âĶ",0.0],["▁troops",0.0],["▁agents",0.0],["▁battery",0.0],["▁motiv",0.0],["Ã¡",0.0],["Sec",0.0],["den",0.0],["overy",0.0],["LS",0.0],["▁flu",0.0],["▁confident",0.0],["▁Oper",0.0],["▁empty",0.0],["▁phen",0.0],["▁sector",0.0],["▁excited",0.0],["▁remote",0.0],["aph",0.0],["oen",0.0],["▁destroyed",0.0],["▁moral",0.0],["▁HP",0.0],["▁Ron",0.0],["▁dress",0.0],["▁Bat",0.0],["▁lit",0.0],["▁MS",0.0],["▁af",0.0],["HL",0.0],["rum",0.0],["isms",0.0],["▁shouldn",0.0],["▁sympt",0.0],["▁Toronto",0.0],["hetic",0.0],["▁carbon",0.0],["▁installed",0.0],["▁violent",0.0],["▁solar",0.0],["ja",0.0],["▁practices",0.0],["▁ride",0.0],["▁Penn",0.0],["▁improved",0.0],["▁audio",0.0],["▁behavi",0.0],["▁PS",0.0],["▁eating",0.0],["Data",0.0],["▁Review",0.0],["pass",0.0],["claim",0.0],["uated",0.0],["angers",0.0],["chen",0.0],["▁properties",0.0],["▁anywhere",0.0],["Another",0.0],["▁blow",0.0],["▁Jackson",0.0],["▁proud",0.0],["▁plane",0.0],["lines",0.0],["▁square",0.0],["▁proof",0.0],["ansas",0.0],["▁talked",0.0],["makers",0.0],["▁sister",0.0],["▁holds",0.0],["▁resident",0.0],["▁==",0.0],["▁resistance",0.0],["▁split",0.0],["▁prosecut",0.0],["▁confidence",0.0],["resents",0.0],["▁cuts",0.0],["▁exception",0.0],["▁zero",0.0],["Getty",0.0],["▁copyright",0.0],["▁totally",0.0],["ormal",0.0],["ifications",0.0],["▁Australian",0.0],["▁sick",0.0],["▁150",0.0],["▁household",0.0],["▁fees",0.0],["▁drivers",0.0],["ogen",0.0],["▁NY",0.0],["▁necessarily",0.0],["▁regulations",0.0],["earing",0.0],["sl",0.0],["▁perspective",0.0],["care",0.0],["icial",0.0],["His",0.0],["▁escape",0.0],["▁surprised",0.0],["▁Van",0.0],["urrent",0.0],["▁vac",0.0],["81",0.0],["▁Thus",0.0],["▁emphas",0.0],["▁Champions",0.0],["▁Ice",0.0],["▁narr",0.0],["▁heads",0.0],["▁causing",0.0],["bel",0.0],["fortunately",0.0],["▁Ma",0.0],["▁targets",0.0],["cipl",0.0],["▁afternoon",0.0],["▁adds",0.0],["▁Maybe",0.0],["▁Four",0.0],["essed",0.0],["plete",0.0],["▁usual",0.0],["cho",0.0],["ingu",0.0],["▁withd",0.0],["▁Energy",0.0],["▁Econom",0.0],["OO",0.0],["▁articles",0.0],["▁injured",0.0],["▁manage",0.0],["▁explains",0.0],["▁diagn",0.0],["Rec",0.0],["atures",0.0],["▁linked",0.0],["▁discussed",0.0],["▁explo",0.0],["▁occasion",0.0],["athan",0.0],["▁opposite",0.0],["▁faces",0.0],["▁denied",0.0],["▁Knight",0.0],["▁nut",0.0],["▁approximately",0.0],["▁disappoint",0.0],["onymous",0.0],["▁Best",0.0],["▁Lo",0.0],["▁Hy",0.0],["▁Aff",0.0],["▁voting",0.0],["anwhile",0.0],["▁III",0.0],["▁institutions",0.0],["agram",0.0],["▁Daily",0.0],["▁drag",0.0],["▁nearby",0.0],["▁guilty",0.0],["▁conver",0.0],["Pre",0.0],["ship",0.0],["▁reward",0.0],["▁philosoph",0.0],["▁SS",0.0],["ugh",0.0],["▁apps",0.0],["friend",0.0],["▁upper",0.0],["▁advert",0.0],["▁snow",0.0],["▁frust",0.0],["▁ourselves",0.0],["Fr",0.0],["▁Die",0.0],["ampion",0.0],["▁dismiss",0.0],["▁cere",0.0],["▁signal",0.0],["from",0.0],["▁).",0.0],["▁52",0.0],["▁crimes",0.0],["itors",0.0],["estival",0.0],["useum",0.0],["▁council",0.0],["▁Saud",0.0],["May",0.0],["▁Gun",0.0],["ician",0.0],["ether",0.0],["▁sufficient",0.0],["▁Hen",0.0],["sole",0.0],["▁historical",0.0],["▁Far",0.0],["▁Turn",0.0],["▁pin",0.0],["▁succeed",0.0],["mat",0.0],["lymp",0.0],["▁tradition",0.0],["▁Ok",0.0],["▁cro",0.0],["▁description",0.0],["alle",0.0],["▁sky",0.0],["Te",0.0],["▁widely",0.0],["▁wave",0.0],["▁definition",0.0],["▁Jews",0.0],["▁cycle",0.0],["▁refere",0.0],["▁brings",0.0],["usal",0.0],["▁alive",0.0],["▁frequently",0.0],["▁intention",0.0],["▁Control",0.0],["lv",0.0],["ystem",0.0],["▁privacy",0.0],["gent",0.0],["rence",0.0],["▁Quest",0.0],["▁Christmas",0.0],["▁rail",0.0],["▁cooper",0.0],["▁tested",0.0],["▁Capt",0.0],["asks",0.0],["▁comfortable",0.0],["▁delivered",0.0],["scape",0.0],["▁depth",0.0],["▁GOP",0.0],["▁writes",0.0],["▁assets",0.0],["▁sav",0.0],["iments",0.0],["▁transition",0.0],["▁artist",0.0],["▁Look",0.0],["▁lob",0.0],["▁components",0.0],["arity",0.0],["▁walked",0.0],["▁root",0.0],["▁participants",0.0],["▁noticed",0.0],["▁resc",0.0],["▁nav",0.0],["▁Administ",0.0],["da",0.0],["utral",0.0],["plate",0.0],["▁importance",0.0],["▁assert",0.0],["iously",0.0],["cription",0.0],["▁injuries",0.0],["▁Check",0.0],["▁registered",0.0],["▁intent",0.0],["▁missed",0.0],["ographic",0.0],["▁sentence",0.0],["ounter",0.0],["▁assistance",0.0],["evin",0.0],["▁database",0.0],["▁buildings",0.0],["▁classic",0.0],["▁thinks",0.0],["▁Ohio",0.0],["Pr",0.0],["ugg",0.0],["▁fee",0.0],["pan",0.0],["▁effectively",0.0],["▁facility",0.0],["▁bear",0.0],["▁chapter",0.0],["▁dogs",0.0],["▁Columb",0.0],["▁latter",0.0],["itial",0.0],["▁admitted",0.0],["TV",0.0],["▁Georg",0.0],["▁posts",0.0],["\\\\",0.0],["▁lawyer",0.0],["▁equival",0.0],["▁mand",0.0],["▁controlled",0.0],["▁Walk",0.0],["▁Andrew",0.0],["▁menu",0.0],["amental",0.0],["▁protected",0.0],["va",0.0],["▁administr",0.0],["oral",0.0],["▁rein",0.0],["▁Sar",0.0],["▁amounts",0.0],["▁native",0.0],["▁Moon",0.0],["▁represents",0.0],["▁abandon",0.0],["▁carrying",0.0],["▁tank",0.0],["mary",0.0],["▁declared",0.0],["Tube",0.0],["▁hat",0.0],["▁punish",0.0],["ellect",0.0],["mes",0.0],["▁universe",0.0],["▁Rod",0.0],["phy",0.0],["▁infrastructure",0.0],["▁51",0.0],["▁opposed",0.0],["ownt",0.0],["ca",0.0],["▁Make",0.0],["▁hardware",0.0],["▁coffee",0.0],["Rel",0.0],["bal",0.0],["world",0.0],["▁Saf",0.0],["▁Sea",0.0],["inals",0.0],["▁owned",0.0],["▁hall",0.0],["ersion",0.0],["▁describe",0.0],["▁Pot",0.0],["▁portion",0.0],["▁atmosp",0.0],["▁governments",0.0],["▁depending",0.0],["▁offense",0.0],["▁trick",0.0],["awa",0.0],["▁Line",0.0],["▁Vis",0.0],["▁Hard",0.0],["▁Orig",0.0],["▁Click",0.0],["▁desk",0.0],["▁Valley",0.0],["▁Sov",0.0],["▁movies",0.0],["▁remark",0.0],["▁mail",0.0],["▁conscious",0.0],["▁ruling",0.0],["▁Rights",0.0],["▁medic",0.0],["hent",0.0],["▁Women",0.0],["><",0.0],["▁replaced",0.0],["▁Prem",0.0],["▁Thanks",0.0],["▁renew",0.0],["▁Ball",0.0],["iform",0.0],["▁shots",0.0],["Comm",0.0],["▁armed",0.0],["▁constant",0.0],["▁taste",0.0],["▁realized",0.0],["▁buff",0.0],["▁mo",0.0],["▁efficient",0.0],["Most",0.0],["oration",0.0],["ifies",0.0],["▁communication",0.0],["▁flood",0.0],["▁consequences",0.0],["▁anyway",0.0],["igg",0.0],["▁GM",0.0],["▁Thank",0.0],["▁iron",0.0],["▁evolution",0.0],["▁Cop",0.0],["twitter",0.0],["▁95",0.0],["▁relationships",0.0],["adel",0.0],["▁Young",0.0],["▁proposal",0.0],["ayers",0.0],["uilding",0.0],["▁Hot",0.0],["ORE",0.0],["cos",0.0],["▁collabor",0.0],["PG",0.0],["axy",0.0],["▁knowing",0.0],["▁supports",0.0],["owed",0.0],["▁controls",0.0],["▁merely",0.0],["umer",0.0],["▁athlet",0.0],["▁fashion",0.0],["path",0.0],["▁gift",0.0],["▁era",0.0],["AND",0.0],["▁kinds",0.0],["▁Korean",0.0],["▁legit",0.0],["ulous",0.0],["▁essentially",0.0],["▁therap",0.0],["nic",0.0],["▁suffered",0.0],["▁hur",0.0],["▁promise",0.0],["▁excess",0.0],["▁overw",0.0],["▁prime",0.0],["▁Houston",0.0],["erry",0.0],["▁Ms",0.0],["RS",0.0],["2012",0.0],["▁stores",0.0],["▁Olymp",0.0],["▁journey",0.0],["Although",0.0],["Sub",0.0],["▁Educ",0.0],["▁Chapter",0.0],["▁requests",0.0],["▁consumers",0.0],["▁tiny",0.0],["▁isol",0.0],["▁Fair",0.0],["ba",0.0],["▁YOU",0.0],["▁crash",0.0],["celer",0.0],["▁emotional",0.0],["▁goods",0.0],["▁elected",0.0],["▁moder",0.0],["▁Linux",0.0],["▁blocks",0.0],["▁island",0.0],["▁Society",0.0],["▁elections",0.0],["▁broadcast",0.0],["▁cheap",0.0],["▁nations",0.0],["▁seasons",0.0],["400",0.0],["▁waste",0.0],["▁Sat",0.0],["▁fields",0.0],["employ",0.0],["▁profile",0.0],["▁authors",0.0],["ALL",0.0],["▁Gra",0.0],["west",0.0],["▁Ty",0.0],["▁deaths",0.0],["▁vacc",0.0],["▁formed",0.0],["▁du",0.0],["▁ongoing",0.0],["▁Muslims",0.0],["elf",0.0],["igure",0.0],["▁assume",0.0],["▁Ukraine",0.0],["water",0.0],["▁coast",0.0],["▁voted",0.0],["gor",0.0],["▁AS",0.0],["▁Michigan",0.0],["aza",0.0],["▁Arm",0.0],["iro",0.0],["▁flex",0.0],["asters",0.0],["''",0.0],["▁welcome",0.0],["arl",0.0],["▁locations",0.0],["igation",0.0],["▁Fil",0.0],["▁buying",0.0],["▁architect",0.0],["▁harder",0.0],["▁Cub",0.0],["▁interface",0.0],["▁restaurant",0.0],["▁discover",0.0],["▁exceed",0.0],["▁favour",0.0],["gery",0.0],["▁duty",0.0],["▁pitch",0.0],["ador",0.0],["▁Mach",0.0],["boy",0.0],["▁responded",0.0],["▁extended",0.0],["hers",0.0],["Many",0.0],["raid",0.0],["ifer",0.0],["▁Ins",0.0],["Ser",0.0],["▁medium",0.0],["she",0.0],["▁Sports",0.0],["▁magazine",0.0],["utation",0.0],["▁limits",0.0],["▁Gall",0.0],["▁external",0.0],["razil",0.0],["▁younger",0.0],["tle",0.0],["▁remind",0.0],["▁CON",0.0],["▁immediate",0.0],["▁hidden",0.0],["▁volunte",0.0],["▁simpl",0.0],["odcast",0.0],["▁phase",0.0],["dr",0.0],["▁plot",0.0],["▁exposure",0.0],["RI",0.0],["ograp",0.0],["vin",0.0],["anish",0.0],["▁Acad",0.0],["▁Engine",0.0],["▁expansion",0.0],["▁Pay",0.0],["Your",0.0],["▁pushed",0.0],["▁Ell",0.0],["▁Head",0.0],["▁marketing",0.0],["▁AC",0.0],["ket",0.0],["▁hits",0.0],["▁gro",0.0],["▁Age",0.0],["▁Scot",0.0],["][",0.0],["▁stim",0.0],["▁iPhone",0.0],["ĪĴ",0.0],["▁narrow",0.0],["▁Getty",0.0],["▁Turkey",0.0],["▁perfectly",0.0],["▁enable",0.0],["utch",0.0],["▁precise",0.0],["▁regime",0.0],["▁shif",0.0],["▁compens",0.0],["gun",0.0],["div",0.0],["▁chosen",0.0],["▁Ken",0.0],["Any",0.0],["▁trees",0.0],["▁recommended",0.0],["▁Ren",0.0],["uable",0.0],["▁HT",0.0],["Follow",0.0],["EG",0.0],["▁Hand",0.0],["▁Kenn",0.0],["▁arguments",0.0],["▁exists",0.0],["▁bike",0.0],["▁Conserv",0.0],["▁breaking",0.0],["▁Gar",0.0],["▁crazy",0.0],["▁virtual",0.0],["aylor",0.0],["ixel",0.0],["▁1980",0.0],["▁permission",0.0],["▁Series",0.0],["▁consumer",0.0],["▁closely",0.0],["called",0.0],["▁54",0.0],["▁hopes",0.0],["▁array",0.0],["▁Win",0.0],["▁Labour",0.0],["▁spons",0.0],["▁Ire",0.0],["▁pow",0.0],["▁readers",0.0],["▁employment",0.0],["▁creature",0.0],["▁resulting",0.0],["▁accurate",0.0],["▁moments",0.0],["▁argued",0.0],["▁ped",0.0],["During",0.0],["▁53",0.0],["▁Tal",0.0],["▁sought",0.0],["▁suffering",0.0],["▁icon",0.0],["lee",0.0],["▁($",0.0],["alian",0.0],["Â°",0.0],["▁pra",0.0],["▁bonus",0.0],["(\"",0.0],["ko",0.0],["▁acting",0.0],["DE",0.0],["fall",0.0],["▁comparison",0.0],["▁smooth",0.0],["▁NAS",0.0],["upp",0.0],["▁Joseph",0.0],["eping",0.0],["▁Take",0.0],["▁Mid",0.0],["▁sending",0.0],["fast",0.0],["▁Fall",0.0],["▁dealing",0.0],["user",0.0],["▁Organ",0.0],["Co",0.0],["▁attached",0.0],["▁sees",0.0],["%.",0.0],["▁typical",0.0],["ART",0.0],["▁finds",0.0],["▁Asia",0.0],["umin",0.0],["▁Core",0.0],["▁Ent",0.0],["inent",0.0],["uce",0.0],["▁Blood",0.0],["▁Never",0.0],["▁emails",0.0],["▁highlight",0.0],["▁confront",0.0],["atus",0.0],["uted",0.0],["▁unus",0.0],["▁topic",0.0],["▁Adam",0.0],["▁ble",0.0],["ati",0.0],["▁understood",0.0],["Set",0.0],["struct",0.0],["TP",0.0],["▁mob",0.0],["aa",0.0],["▁Start",0.0],["pected",0.0],["sell",0.0],["▁dedicated",0.0],["▁CA",0.0],["uan",0.0],["▁songs",0.0],["escription",0.0],["▁tech",0.0],["▁rape",0.0],["▁aside",0.0],["▁grant",0.0],["▁56",0.0],["sub",0.0],["▁argue",0.0],["▁containing",0.0],["▁schedule",0.0],["▁liberal",0.0],["▁publicly",0.0],["▁heavily",0.0],["▁Ut",0.0],["iner",0.0],["▁Section",0.0],["▁Care",0.0],["weet",0.0],["ls",0.0],["Dis",0.0],["âĶĢ",0.0],["▁Follow",0.0],["Back",0.0],["▁IT",0.0],["▁bes",0.0],["ji",0.0],["▁Hit",0.0],["ested",0.0],["▁everybody",0.0],["▁Swed",0.0],["▁femin",0.0],["▁facilities",0.0],["▁conven",0.0],["Comp",0.0],["▁OS",0.0],["core",0.0],["▁anx",0.0],["▁division",0.0],["▁Cam",0.0],["▁Stan",0.0],["mates",0.0],["▁explore",0.0],["plom",0.0],["▁shares",0.0],["pload",0.0],["anes",0.0],["▁ideal",0.0],["eters",0.0],["▁Base",0.0],["▁plastic",0.0],["▁distinct",0.0],["▁Network",0.0],["▁Seattle",0.0],["▁trading",0.0],["ensus",0.0],["intend",0.0],["▁exhib",0.0],["▁initially",0.0],["▁Food",0.0],["▁thousand",0.0],["▁Business",0.0],["acter",0.0],["▁paragraph",0.0],["▁roughly",0.0],["▁www",0.0],["▁creative",0.0],["▁Conf",0.0],["▁consumption",0.0],["▁films",0.0],["agan",0.0],["▁obtain",0.0],["▁tall",0.0],["▁tor",0.0],["▁acknowled",0.0],["▁grown",0.0],["alo",0.0],["KE",0.0],["▁400",0.0],["enders",0.0],["taining",0.0],["UG",0.0],["▁suicide",0.0],["▁watched",0.0],["▁List",0.0],["ali",0.0],["rehens",0.0],["▁surrounding",0.0],["▁pip",0.0],["▁flying",0.0],["▁Java",0.0],["ordan",0.0],["▁serving",0.0],["inations",0.0],["post",0.0],["▁sho",0.0],["Av",0.0],["▁jail",0.0],["zy",0.0],["▁1999",0.0],["▁</",0.0],["▁literally",0.0],["▁Sir",0.0],["▁exposed",0.0],["▁lies",0.0],["star",0.0],["▁bat",0.0],["▁earned",0.0],["▁Dig",0.0],["▁specified",0.0],["▁Season",0.0],["▁degrees",0.0],["Donald",0.0],["▁centre",0.0],["▁sharing",0.0],["▁winter",0.0],["▁CO",0.0],["Che",0.0],["▁Î",0.0],["MP",0.0],["▁unw",0.0],["▁fewer",0.0],["▁Mir",0.0],["▁somewhere",0.0],["▁Key",0.0],["▁attacked",0.0],["▁Kir",0.0],["▁domain",0.0],["▁stronger",0.0],["▁99",0.0],["▁penalty",0.0],["Id",0.0],["Script",0.0],["▁declined",0.0],["▁neck",0.0],["▁fraud",0.0],["▁currency",0.0],["▁rising",0.0],["RC",0.0],["âĢ¦âĢ¦",0.0],["Hz",0.0],["▁tab",0.0],["▁talent",0.0],["nam",0.0],["▁NBA",0.0],["▁village",0.0],["▁legs",0.0],["▁Next",0.0],["Ed",0.0],["▁acid",0.0],["▁hyd",0.0],["800",0.0],["▁involving",0.0],["▁Image",0.0],["▁Before",0.0],["Fl",0.0],["▁yesterday",0.0],["Source",0.0],["▁terrorist",0.0],["▁sup",0.0],["▁synt",0.0],["▁Saudi",0.0],["▁west",0.0],["▁ru",0.0],["burg",0.0],["▁visible",0.0],["▁struck",0.0],["rison",0.0],["▁awesome",0.0],["▁drawn",0.0],["▁answers",0.0],["▁Girl",0.0],["▁Ram",0.0],["▁threats",0.0],["▁defeat",0.0],["osit",0.0],["▁vent",0.0],["aturally",0.0],["American",0.0],["enda",0.0],["▁Holy",0.0],["▁rum",0.0],["%,",0.0],["case",0.0],["▁History",0.0],["▁YouTube",0.0],["▁situations",0.0],["▁DNA",0.0],["Ste",0.0],["▁saved",0.0],["Item",0.0],["▁recip",0.0],["ologist",0.0],["▁faced",0.0],["▁elig",0.0],["Once",0.0],["▁Li",0.0],["uh",0.0],["▁mistake",0.0],["▁Division",0.0],["▁Bell",0.0],["▁symptoms",0.0],["Â®",0.0],["▁domin",0.0],["▁falling",0.0],["▁ending",0.0],["ashes",0.0],["▁matches",0.0],["▁Online",0.0],["▁explanation",0.0],["Def",0.0],["redit",0.0],["▁anymore",0.0],["▁Total",0.0],["▁FOR",0.0],["ushed",0.0],["▁letters",0.0],["▁risks",0.0],["▁OK",0.0],["▁reportedly",0.0],[":\\",0.0],["▁plate",0.0],["▁subjects",0.0],["▁attempted",0.0],["ifier",0.0],["iana",0.0],["▁unlikely",0.0],["▁Though",0.0],["uma",0.0],["▁Invest",0.0],["▁Prin",0.0],["ican",0.0],["▁Dar",0.0],["▁Colorado",0.0],["aug",0.0],["▁veget",0.0],["aos",0.0],["ria",0.0],["▁shel",0.0],["▁marked",0.0],["▁()",0.0],["▁spr",0.0],["po",0.0],["▁Link",0.0],["▁defe",0.0],["▁Jr",0.0],["▁theme",0.0],["▁passion",0.0],["▁Pen",0.0],["▁info",0.0],["izer",0.0],["▁shit",0.0],["▁Civil",0.0],["apse",0.0],["cre",0.0],["▁poly",0.0],["▁component",0.0],["▁Charles",0.0],["▁Ireland",0.0],["▁Prov",0.0],["▁doctors",0.0],["▁granted",0.0],["▁paint",0.0],["▁honor",0.0],["▁smoke",0.0],["▁payments",0.0],["▁primarily",0.0],["▁Kingdom",0.0],["rich",0.0],["atell",0.0],["▁deals",0.0],["▁scheduled",0.0],["▁fundamental",0.0],["▁protein",0.0],["▁newspaper",0.0],["▁clients",0.0],["ython",0.0],["▁Date",0.0],["hus",0.0],["▁feedback",0.0],["▁stretch",0.0],["▁cock",0.0],["▁hotel",0.0],["▁Queen",0.0],["▁sugar",0.0],["▁ju",0.0],["▁milk",0.0],["▁approval",0.0],["▁Live",0.0],["▁equivalent",0.0],["efully",0.0],["▁insert",0.0],["zona",0.0],["▁extension",0.0],["dri",0.0],["John",0.0],["▁accomp",0.0],["Sm",0.0],["▁Fund",0.0],["▁constantly",0.0],["▁``",0.0],["▁generated",0.0],["▁Action",0.0],["▁Psych",0.0],["▁Tri",0.0],["▁recognize",0.0],["▁vary",0.0],["pha",0.0],["▁Ra",0.0],["df",0.0],["etch",0.0],["▁Soviet",0.0],["Two",0.0],["▁patterns",0.0],["▁profession",0.0],["aning",0.0],["Time",0.0],["▁Lim",0.0],["▁colors",0.0],["▁Az",0.0],["▁TR",0.0],["▁infect",0.0],["▁phenomen",0.0],["▁shell",0.0],["Also",0.0],["▁puts",0.0],["▁delivery",0.0],["▁brown",0.0],["▁processing",0.0],["▁lights",0.0],["essage",0.0],["▁Brook",0.0],["▁Aud",0.0],["lation",0.0],["▁industrial",0.0],["Like",0.0],["▁Brazil",0.0],["rous",0.0],["ESS",0.0],["▁Luc",0.0],["▁somehow",0.0],["▁85",0.0],["▁proport",0.0],["▁politicians",0.0],["▁indicate",0.0],["▁hole",0.0],["▁techniques",0.0],["▁competitive",0.0],["▁phr",0.0],["▁vo",0.0],["istent",0.0],["▁Dream",0.0],["▁campus",0.0],["▁aspects",0.0],["▁helpful",0.0],["▁shield",0.0],["orse",0.0],["▁trigger",0.0],["mal",0.0],["▁58",0.0],["▁tort",0.0],["▁personally",0.0],["▁tag",0.0],["▁keeps",0.0],["▁Video",0.0],["▁bench",0.0],["▁gap",0.0],["aire",0.0],["▁east",0.0],["▁recovery",0.0],["perial",0.0],["▁profit",0.0],["▁Mic",0.0],["▁57",0.0],["▁colon",0.0],["▁strongly",0.0],["style",0.0],["▁allegations",0.0],["han",0.0],["▁reporters",0.0],["jo",0.0],["rine",0.0],["arget",0.0],["andal",0.0],["▁03",0.0],["▁flash",0.0],["trans",0.0],["▁strict",0.0],["▁parking",0.0],["▁Pakistan",0.0],["▁li",0.0],["▁weird",0.0],["▁Eric",0.0],["▁regions",0.0],["▁Jun",0.0],["▁intellect",0.0],["▁WH",0.0],["oding",0.0],["ributes",0.0],["upid",0.0],["▁Tit",0.0],["▁finger",0.0],["oria",0.0],["▁elev",0.0],["▁Field",0.0],["▁conclusion",0.0],[";;",0.0],["▁feelings",0.0],["▁extensive",0.0],["▁mixed",0.0],["▁neuro",0.0],["vy",0.0],["▁harass",0.0],["▁Circ",0.0],["ouch",0.0],["▁territory",0.0],["▁successfully",0.0],["Mar",0.0],["▁ingred",0.0],["▁overwhel",0.0],["▁layer",0.0],["View",0.0],["▁allies",0.0],["illance",0.0],["▁Three",0.0],["▁bunch",0.0],["▁normally",0.0],["▁networks",0.0],["▁sacr",0.0],["▁CIA",0.0],["bles",0.0],["▁chose",0.0],["▁opponents",0.0],["▁regardless",0.0],["▁franch",0.0],["▁pref",0.0],["▁Po",0.0],["▁bridge",0.0],["anna",0.0],["▁Silver",0.0],["▁wage",0.0],["page",0.0],["rior",0.0],["▁radical",0.0],["▁Little",0.0],["▁manip",0.0],["▁secretary",0.0],["▁gang",0.0],["DR",0.0],["FA",0.0],["▁decent",0.0],["▁Spirit",0.0],["▁uncle",0.0],["▁Development",0.0],["▁investors",0.0],["▁walls",0.0],["▁publish",0.0],["▁generate",0.0],["issions",0.0],["car",0.0],["▁promote",0.0],["▁cutting",0.0],["▁chest",0.0],["▁drinking",0.0],["▁collected",0.0],["▁72",0.0],["▁hoping",0.0],["▁embr",0.0],["gorith",0.0],["▁warned",0.0],["▁instructions",0.0],["OG",0.0],["▁Did",0.0],["▁Agency",0.0],["▁gear",0.0],["▁criticism",0.0],["▁Further",0.0],["▁util",0.0],["anny",0.0],["Red",0.0],["▁counsel",0.0],["▁Asian",0.0],["▁reduction",0.0],["pool",0.0],["▁teaching",0.0],["▁deeply",0.0],["iy",0.0],["▁estimates",0.0],["▁choices",0.0],["▁permanent",0.0],["inem",0.0],["kel",0.0],["▁fasc",0.0],["pse",0.0],["file",0.0],["▁Low",0.0],["▁Person",0.0],["▁tournament",0.0],["stal",0.0],["▁mel",0.0],["UST",0.0],["▁Ray",0.0],["azi",0.0],["Val",0.0],["▁contained",0.0],["▁Holly",0.0],["▁wake",0.0],["▁reveal",0.0],["▁processes",0.0],["▁ISIS",0.0],["▁09",0.0],["▁blind",0.0],["▁steel",0.0],["▁Bad",0.0],["▁carefully",0.0],["appy",0.0],["roit",0.0],["▁gaming",0.0],["▁houses",0.0],["▁Coll",0.0],["▁truck",0.0],["erm",0.0],["▁scored",0.0],["▁occas",0.0],["return",0.0],["bound",0.0],["var",0.0],["▁sharp",0.0],["▁afraid",0.0],["▁EX",0.0],["amber",0.0],["cific",0.0],["▁scheme",0.0],["NC",0.0],["▁Polit",0.0],["▁decline",0.0],["▁1998",0.0],["▁pushing",0.0],["▁possession",0.0],["▁privile",0.0],["▁teachers",0.0],["▁yield",0.0],["HA",0.0],["▁Davis",0.0],["itled",0.0],["########",0.0],["▁rig",0.0],["▁Daniel",0.0],["acon",0.0],["▁hide",0.0],["uten",0.0],["▁colleagues",0.0],["▁principles",0.0],["▁loud",0.0],["▁sin",0.0],["▁Demon",0.0],["▁stone",0.0],["▁02",0.0],["▁taught",0.0],["▁terrible",0.0],["▁stuck",0.0],["▁Policy",0.0],["teen",0.0],["▁implementation",0.0],["▁BBC",0.0],["▁API",0.0],["▁wheel",0.0],["allas",0.0],["▁champions",0.0],["olars",0.0],["player",0.0],["▁repeatedly",0.0],["▁Still",0.0],["▁likes",0.0],["asty",0.0],["ester",0.0],["▁Catholic",0.0],["RL",0.0],["▁bath",0.0],["▁noise",0.0],["title",0.0],["▁northern",0.0],["Part",0.0],["▁magn",0.0],["▁fab",0.0],["▁Ash",0.0],["▁displ",0.0],["▁ticket",0.0],["▁murd",0.0],["▁alongside",0.0],["▁Music",0.0],["▁river",0.0],["▁Steel",0.0],["▁CL",0.0],["▁Player",0.0],["▁Mult",0.0],["owing",0.0],["rep",0.0],["size",0.0],["▁tur",0.0],["▁Georgia",0.0],["iscal",0.0],["raction",0.0],["▁cable",0.0],["▁59",0.0],["▁wins",0.0],["▁upcoming",0.0],["▁survive",0.0],["▁inspired",0.0],["▁Education",0.0],["▁statistics",0.0],["▁Foot",0.0],["iami",0.0],["▁yellow",0.0],["▁Page",0.0],[".-",0.0],["▁Has",0.0],["▁urban",0.0],["▁ax",0.0],["essel",0.0],["\\\"",0.0],["▁quarterback",0.0],["▁register",0.0],["▁Labor",0.0],["▁abilities",0.0],["▁Family",0.0],["▁variable",0.0],["▁Price",0.0],["▁contem",0.0],["▁thin",0.0],["▁Equ",0.0],["data",0.0],["▁gotten",0.0],["▁constit",0.0],["▁asks",0.0],["▁tail",0.0],["▁exciting",0.0],["▁Effect",0.0],["▁Spanish",0.0],["▁encourage",0.0],["inson",0.0],["▁Ah",0.0],["▁commitment",0.0],["CS",0.0],["▁rally",0.0],["▁::",0.0],["▁subsid",0.0],["▁spin",0.0],["▁captured",0.0],["2018",0.0],["▁innoc",0.0],["▁allegedly",0.0],["▁Come",0.0],["▁artists",0.0],["▁Number",0.0],["▁electronic",0.0],["▁regional",0.0],["apes",0.0],["▁wra",0.0],["▁myth",0.0],["prise",0.0],["▁Miller",0.0],["▁Creat",0.0],["▁Episode",0.0],["bell",0.0],["▁directed",0.0],["▁extract",0.0],["▁sorry",0.0],["▁vice",0.0],["agger",0.0],["▁Support",0.0],["▁66",0.0],["▁Iron",0.0],["▁wonderful",0.0],["▁gra",0.0],["Net",0.0],["ione",0.0],["Eng",0.0],["▁ships",0.0],["ikes",0.0],["▁Kevin",0.0],["itar",0.0],["▁activists",0.0],["true",0.0],["▁Arizona",0.0],["enth",0.0],["▁Despite",0.0],["▁SE",0.0],["▁habit",0.0],["ernel",0.0],["▁inqu",0.0],["▁abortion",0.0],["▁void",0.0],["▁explicit",0.0],["▁engaged",0.0],["▁angry",0.0],["▁rating",0.0],["▁frag",0.0],["bro",0.0],["icking",0.0],["dev",0.0],["▁worried",0.0],["▁obser",0.0],["▁apartment",0.0],["▁GT",0.0],["▁estate",0.0],["▁Constitution",0.0],["emon",0.0],["▁Snow",0.0],["▁county",0.0],["▁disag",0.0],["▁Stephen",0.0],["▁immigrants",0.0],["wind",0.0],["▁Nations",0.0],["▁folks",0.0],["Out",0.0],["▁gall",0.0],["▁targeted",0.0],["▁stead",0.0],["▁Bon",0.0],["▁Lib",0.0],["▁informed",0.0],["▁120",0.0],["chain",0.0],["idelines",0.0],["orough",0.0],["▁driven",0.0],["▁regularly",0.0],["▁basket",0.0],["▁principle",0.0],["ocument",0.0],["▁stun",0.0],["ibilities",0.0],["▁Roman",0.0],["▁About",0.0],["▁alert",0.0],["▁democracy",0.0],["▁represented",0.0],["HS",0.0],["cers",0.0],["parent",0.0],["Art",0.0],["pack",0.0],["▁diplom",0.0],["rets",0.0],["▁NO",0.0],["▁capture",0.0],["▁Adv",0.0],["Ħ¢",0.0],["▁announcement",0.0],["▁Lear",0.0],["▁hook",0.0],["▁purs",0.0],["▁Such",0.0],["▁Camer",0.0],["▁refugees",0.0],["▁Ve",0.0],["Pol",0.0],["▁recognized",0.0],["lib",0.0],["▁hadn",0.0],["Ass",0.0],["▁pilot",0.0],["ushing",0.0],["▁returning",0.0],["▁trail",0.0],["▁Stone",0.0],["▁routine",0.0],["▁courts",0.0],["▁desper",0.0],["▁friendly",0.0],["▁Italy",0.0],["▁pled",0.0],["▁breath",0.0],["▁studio",0.0],["NS",0.0],["▁impressive",0.0],["▁Afghanistan",0.0],["▁fing",0.0],["▁downt",0.0],["inking",0.0],["▁Rog",0.0],["iary",0.0],["color",0.0],["sex",0.0],["aron",0.0],["▁fault",0.0],["▁Nick",0.0],["Down",0.0],["▁Rose",0.0],["▁Southern",0.0],["XX",0.0],["isodes",0.0],["List",0.0],["600",0.0],["▁outcome",0.0],["err",0.0],["▁elsewhere",0.0],["▁retire",0.0],["▁pounds",0.0],["▁Global",0.0],["People",0.0],["▁communications",0.0],["▁loan",0.0],["▁ratio",0.0],["▁Empire",0.0],["▁gonna",0.0],["▁invent",0.0],["DF",0.0],["▁1970",0.0],["▁Common",0.0],["pat",0.0],["▁promised",0.0],["▁dinner",0.0],["▁Hom",0.0],["▁creates",0.0],["▁operate",0.0],["verty",0.0],["▁Jordan",0.0],["etime",0.0],["▁sustain",0.0],["Reg",0.0],["▁incredible",0.0],["ima",0.0],["▁warrant",0.0],["▁mm",0.0],["Att",0.0],["▁lawsuit",0.0],["▁reviews",0.0],["iture",0.0],["▁Source",0.0],["lights",0.0],["▁Ford",0.0],["▁63",0.0],["group",0.0],["store",0.0],["▁featured",0.0],["▁forever",0.0],["▁poverty",0.0],["▁Pop",0.0],["▁CNN",0.0],["azz",0.0],["abis",0.0],["aching",0.0],["▁laid",0.0],["▁Supp",0.0],["▁filter",0.0],["ena",0.0],["▁Community",0.0],["▁creatures",0.0],["uction",0.0],["▁Royal",0.0],["▁association",0.0],["▁Connect",0.0],["▁Brad",0.0],["âĸĪ",0.0],["lers",0.0],["there",0.0],["▁Gi",0.0],["▁valuable",0.0],["ACK",0.0],["▁Taylor",0.0],["▁liquid",0.0],["▁Attorney",0.0],["▁Carl",0.0],["▁Final",0.0],["aga",0.0],["▁Wilson",0.0],["Because",0.0],["▁Professor",0.0],["aka",0.0],["▁incredibly",0.0],["rance",0.0],["!)",0.0],["Ref",0.0],["sk",0.0],["▁solutions",0.0],["▁atmosphere",0.0],["▁blame",0.0],["umes",0.0],["▁Nob",0.0],["CA",0.0],["umps",0.0],["rical",0.0],["▁Putin",0.0],["▁Dest",0.0],["oric",0.0],["▁PA",0.0],["▁respectively",0.0],["wan",0.0],["▁fifth",0.0],["âĦ¢",0.0],["▁Cry",0.0],["▁governor",0.0],["resident",0.0],["▁purchased",0.0],["▁hack",0.0],["▁intense",0.0],["obs",0.0],["▁origin",0.0],["▁define",0.0],["▁careful",0.0],["***",0.0],["▁shoulder",0.0],["Click",0.0],["▁tied",0.0],["▁destruction",0.0],["oured",0.0],["▁nobody",0.0],["▁ho",0.0],["▁Exper",0.0],["▁tip",0.0],["\";",0.0],["▁technique",0.0],["▁jur",0.0],["▁Pok",0.0],["bow",0.0],["▁legend",0.0],["▁accord",0.0],["▁busy",0.0],["▁Intel",0.0],["▁hang",0.0],["aki",0.0],[".]",0.0],["âĢĶâĢĶâĢĶâĢĶ",0.0],["▁surgery",0.0],["▁reprodu",0.0],["▁uniform",0.0],["▁scenes",0.0],["code",0.0],["▁62",0.0],["lisher",0.0],["▁Have",0.0],["phia",0.0],["▁crypt",0.0],["▁recon",0.0],["▁scream",0.0],["▁adopted",0.0],["▁scores",0.0],["Ne",0.0],["▁Italian",0.0],["including",0.0],["BO",0.0],["▁indicated",0.0],["▁entertain",0.0],["Gu",0.0],["Text",0.0],["iel",0.0],["▁twenty",0.0],["▁engage",0.0],["offs",0.0],["▁Pacific",0.0],["▁smile",0.0],["▁personnel",0.0],["▁toler",0.0],["▁doors",0.0],["▁tone",0.0],["▁machines",0.0],["▁entering",0.0],["tenance",0.0],["CO",0.0],["▁Jersey",0.0],["▁forest",0.0],["▁horse",0.0],["▁complaint",0.0],["▁Spring",0.0],["yo",0.0],["▁Plus",0.0],["eding",0.0],["▁Return",0.0],["quarters",0.0],["ials",0.0],["cow",0.0],["▁academic",0.0],["▁fruit",0.0],["▁1996",0.0],["ogether",0.0],["▁wine",0.0],["▁pursu",0.0],["▁Steven",0.0],["▁licens",0.0],["Who",0.0],["▁clothes",0.0],["rection",0.0],["▁squad",0.0],["▁stable",0.0],["▁raw",0.0],["zens",0.0],["Star",0.0],["uties",0.0],["ancer",0.0],["▁keys",0.0],["▁Mu",0.0],["▁complicated",0.0],["iger",0.0],["▁Text",0.0],["▁absor",0.0],["▁68",0.0],["▁funny",0.0],["▁relief",0.0],["▁Lew",0.0],["▁Cook",0.0],["▁chart",0.0],["▁drawing",0.0],["GE",0.0],["▁module",0.0],["▁Bull",0.0],["ILL",0.0],["▁salt",0.0],["00000000",0.0],["ille",0.0],["▁resource",0.0],["away",0.0],["adelphia",0.0],["▁Bru",0.0],["▁67",0.0],["▁somebody",0.0],["▁participate",0.0],["▁rose",0.0],["wered",0.0],["▁muscle",0.0],["▁consent",0.0],["▁continuing",0.0],["▁Guardian",0.0],["▁Order",0.0],["regon",0.0],["▁rear",0.0],["▁provision",0.0],["▁liked",0.0],["rient",0.0],["▁bra",0.0],["Trans",0.0],["▁meetings",0.0],["▁tox",0.0],["▁convent",0.0],["▁auto",0.0],["▁recording",0.0],["▁Soft",0.0],["001",0.0],["▁Roll",0.0],["▁programming",0.0],["▁pic",0.0],["▁proved",0.0],["▁stab",0.0],["▁Ast",0.0],["▁caption",0.0],["ulating",0.0],["▁Attack",0.0],["▁newly",0.0],["▁1997",0.0],["fr",0.0],["▁discipl",0.0],["▁Greek",0.0],["▁edition",0.0],["▁Does",0.0],["▁Box",0.0],["ifle",0.0],["acket",0.0],["▁passes",0.0],["▁guest",0.0],["▁acceler",0.0],["itals",0.0],["UD",0.0],["▁authent",0.0],["▁Rest",0.0],["oval",0.0],["ta",0.0],["uine",0.0],["▁armor",0.0],["▁Town",0.0],["▁compat",0.0],["▁inches",0.0],["Despite",0.0],["▁assign",0.0],["herent",0.0],["▁prepare",0.0],["▁Meg",0.0],["ockey",0.0],["▁depends",0.0],["▁tracks",0.0],["watch",0.0],["▁lists",0.0],["▁Northern",0.0],["▁alter",0.0],["rec",0.0],["▁Eastern",0.0],["▁condem",0.0],["▁everywhere",0.0],["?'",0.0],["▁affili",0.0],["▁fought",0.0],["\":{\"",0.0],["▁mac",0.0],["itarian",0.0],["▁scope",0.0],["▁AL",0.0],["aws",0.0],["arms",0.0],["▁que",0.0],["▁enjoyed",0.0],["nesota",0.0],["▁aggressive",0.0],["▁Story",0.0],["▁IV",0.0],["▁recipe",0.0],["▁rarely",0.0],["▁Medical",0.0],["value",0.0],["angel",0.0],["aying",0.0],["omething",0.0],["▁subsection",0.0],["▁southern",0.0],["▁frequency",0.0],["rete",0.0],["rolled",0.0],["ults",0.0],["▁Nic",0.0],["▁behalf",0.0],["▁sequence",0.0],["abet",0.0],["▁controversial",0.0],["▁comprom",0.0],["▁worker",0.0],["▁mainly",0.0],["▁algorith",0.0],["▁Major",0.0],["orce",0.0],["gender",0.0],["▁organized",0.0],["▁fake",0.0],["▁concluded",0.0],["▁ED",0.0],["▁Exec",0.0],["rage",0.0],["▁chances",0.0],["berry",0.0],["▁Trad",0.0],["▁configuration",0.0],["▁withdraw",0.0],["▁fro",0.0],["udes",0.0],["▁Brother",0.0],["▁Brian",0.0],["▁tries",0.0],["▁samples",0.0],["▁bid",0.0],["▁Golden",0.0],["▁photograph",0.0],["ifest",0.0],["▁DO",0.0],["▁Parliament",0.0],["****************",0.0],["Rem",0.0],["▁contest",0.0],["▁signing",0.0],["px",0.0],["▁Zeal",0.0],["âĶĢâĶĢ",0.0],["Ear",0.0],["▁exit",0.0],["Before",0.0],["▁Corpor",0.0],["null",0.0],["month",0.0],["▁racial",0.0],["otted",0.0],["▁Veg",0.0],["▁Reuters",0.0],["▁sword",0.0],["pson",0.0],["▁Romney",0.0],["aed",0.0],["▁trib",0.0],["▁inner",0.0],["▁protocol",0.0],["▁Bi",0.0],["▁Miami",0.0],["everal",0.0],["press",0.0],["▁shipping",0.0],["▁Amendment",0.0],["▁Howard",0.0],["connect",0.0],["▁Disc",0.0],["▁Jac",0.0],["iamond",0.0],["▁Therefore",0.0],["ses",0.0],["▁Princess",0.0],["▁USB",0.0],["▁Anth",0.0],["▁surveillance",0.0],["▁apolog",0.0],["▁61",0.0],["owa",0.0],["▁fulf",0.0],["js",0.0],["▁luck",0.0],["usted",0.0],["▁Â§",0.0],["ni",0.0],["▁anticip",0.0],["eman",0.0],["▁winner",0.0],["▁silver",0.0],["lla",0.0],["icity",0.0],["▁unusual",0.0],["▁crack",0.0],["▁ties",0.0],["ez",0.0],["▁practical",0.0],["▁province",0.0],["▁Place",0.0],["▁priority",0.0],["ICE",0.0],["▁describes",0.0],["▁branch",0.0],["Form",0.0],["aska",0.0],["missions",0.0],["bi",0.0],["▁porn",0.0],["▁Turk",0.0],["▁enthus",0.0],["▁fighters",0.0],["▁08",0.0],["▁Detroit",0.0],["▁foundation",0.0],["avid",0.0],["Are",0.0],["▁judgment",0.0],["cling",0.0],["▁solve",0.0],["▁Design",0.0],["Where",0.0],["hesis",0.0],["▁Tro",0.0],["after",0.0],["▁neutral",0.0],["▁Palestinian",0.0],["▁Hollywood",0.0],["▁advis",0.0],["▁Non",0.0],["yes",0.0],["olis",0.0],["▁reputation",0.0],["▁smell",0.0],["▁bread",0.0],["▁Bul",0.0],["▁Beach",0.0],["▁claiming",0.0],["▁genetic",0.0],["▁technologies",0.0],["▁upgrade",0.0],["rows",0.0],["▁developer",0.0],["▁Josh",0.0],["▁Disney",0.0],["erved",0.0],["ipal",0.0],["▁unex",0.0],["▁barely",0.0],["then",0.0],["▁Pub",0.0],["▁illness",0.0],["etary",0.0],["▁Bal",0.0],["▁patch",0.0],["▁butt",0.0],["▁stupid",0.0],["▁Dog",0.0],["▁Dallas",0.0],["front",0.0],["iece",0.0],["▁protests",0.0],["▁chat",0.0],["oenix",0.0],["▁wing",0.0],["▁parliament",0.0],["▁77",0.0],["osexual",0.0],["▁render",0.0],["ptions",0.0],["▁Coast",0.0],["osa",0.0],["▁Greg",0.0],["hop",0.0],["▁Management",0.0],["▁bitcoin",0.0],["▁recover",0.0],["▁incorpor",0.0],["orne",0.0],["▁Using",0.0],["▁preced",0.0],["▁threatened",0.0],["▁spiritual",0.0],["▁Event",0.0],["▁Fred",0.0],["▁advertising",0.0],["▁improvements",0.0],["▁Custom",0.0],["▁errors",0.0],["▁sensitive",0.0],["▁Navy",0.0],["▁cream",0.0],["Look",0.0],["▁exclusive",0.0],["▁comprehens",0.0],["▁deleg",0.0],["▁conce",0.0],["▁remem",0.0],["▁structures",0.0],["▁stored",0.0],["ND",0.0],["▁1000",0.0],["UP",0.0],["▁Budd",0.0],["AF",0.0],["woman",0.0],["▁Academy",0.0],["ðŁ",0.0],["sea",0.0],["▁temporary",0.0],["About",0.0],["esters",0.0],["▁tickets",0.0],["▁possess",0.0],["inch",0.0],["oz",0.0],["▁la",0.0],["▁contracts",0.0],["▁unp",0.0],["▁cig",0.0],["▁Kat",0.0],["ultural",0.0],["asm",0.0],["▁mountain",0.0],["▁Captain",0.0],["Step",0.0],["making",0.0],["▁Spain",0.0],["▁equally",0.0],["▁lands",0.0],["aters",0.0],["▁rejected",0.0],["era",0.0],["imm",0.0],["rix",0.0],["CD",0.0],["▁transaction",0.0],["gener",0.0],["lessly",0.0],["▁||",0.0],["▁cos",0.0],["▁Henry",0.0],["▁provisions",0.0],["▁gained",0.0],["▁directory",0.0],["▁raising",0.0],["▁Sep",0.0],["olen",0.0],["onder",0.0],["▁console",0.0],["inst",0.0],["▁bom",0.0],["▁uncertain",0.0],["150",0.0],["ocking",0.0],["▁measured",0.0],["▁plain",0.0],["▁seats",0.0],["▁dict",0.0],["SL",0.0],["afe",0.0],["▁estimate",0.0],["izon",0.0],["athered",0.0],["▁contributed",0.0],["▁episodes",0.0],["ommod",0.0],["Gr",0.0],["ANT",0.0],["▁69",0.0],["Gener",0.0],["▁250",0.0],["viously",0.0],["rogen",0.0],["▁terrorism",0.0],["▁movements",0.0],["entle",0.0],["ounce",0.0],["▁Soul",0.0],["▁prev",0.0],["▁Table",0.0],["acts",0.0],["riors",0.0],["tab",0.0],["▁suffer",0.0],["▁nerv",0.0],["▁mainstream",0.0],["▁Wolf",0.0],["▁franchise",0.0],["bat",0.0],["▁demands",0.0],["▁agenda",0.0],["▁dozen",0.0],["▁clinical",0.0],["izard",0.0],["▁Op",0.0],["td",0.0],["▁visited",0.0],["▁Perhaps",0.0],["▁actor",0.0],["▁delic",0.0],["▁contribute",0.0],["▁inject",0.0],["▁Es",0.0],["acco",0.0],["▁listening",0.0],["▁congress",0.0],["ependent",0.0],["▁premium",0.0],["▁76",0.0],["▁Irish",0.0],["▁assigned",0.0],["▁Phys",0.0],["▁worldwide",0.0],["▁narrative",0.0],["otype",0.0],["mont",0.0],["base",0.0],["▁Bowl",0.0],["▁Administration",0.0],["▁relation",0.0],["▁EV",0.0],["CP",0.0],["▁covers",0.0],["▁78",0.0],["▁certific",0.0],["▁grass",0.0],["▁04",0.0],["piracy",0.0],["ira",0.0],["▁engineering",0.0],["▁Mars",0.0],["▁unemploy",0.0],["▁Foreign",0.0],["stract",0.0],["▁ven",0.0],["▁steal",0.0],["▁replied",0.0],["▁ultimate",0.0],["▁titles",0.0],["dated",0.0],["▁joy",0.0],["aus",0.0],["▁hyper",0.0],["aku",0.0],["▁officially",0.0],["▁Product",0.0],["▁difficulty",0.0],["peror",0.0],["▁resulted",0.0],["ribed",0.0],["link",0.0],["who",0.0],["~~~~",0.0],["▁Speed",0.0],["▁Viet",0.0],["Wind",0.0],["▁Barack",0.0],["▁restrictions",0.0],["▁Share",0.0],["▁1995",0.0],["itionally",0.0],["▁beauty",0.0],["opt",0.0],["▁maps",0.0],["▁CR",0.0],["▁Nation",0.0],["▁Cruz",0.0],["Will",0.0],["▁electricity",0.0],["▁org",0.0],["▁burd",0.0],["▁violation",0.0],["▁usage",0.0],["▁permit",0.0],["▁Chron",0.0],["▁Fant",0.0],["▁naturally",0.0],["▁07",0.0],["▁thrown",0.0],["▁Awoken",0.0],["▁alien",0.0],["▁Hero",0.0],["▁Kent",0.0],["▁Rick",0.0],["rike",0.0],["▁pace",0.0],["},{\"",0.0],["GL",0.0],["▁poison",0.0],["▁Tower",0.0],["▁formal",0.0],["alysis",0.0],["▁genuine",0.0],["▁kil",0.0],["aver",0.0],["▁procedure",0.0],["▁Prop",0.0],["intendo",0.0],["▁Main",0.0],["asant",0.0],["▁trained",0.0],["Game",0.0],["▁Load",0.0],["▁MA",0.0],["▁crucial",0.0],["▁lets",0.0],["▁FR",0.0],["▁champion",0.0],["101",0.0],["▁Conference",0.0],["▁writers",0.0],["▁connections",0.0],["▁okay",0.0],["irms",0.0],["▁Rand",0.0],["▁encounter",0.0],["▁Buff",0.0],["▁achieved",0.0],["▁checks",0.0],["iscons",0.0],["▁assistant",0.0],["▁whenever",0.0],["▁Access",0.0],["▁Ur",0.0],["bin",0.0],["▁clock",0.0],["isp",0.0],["opher",0.0],["▁borrow",0.0],["▁mad",0.0],["▁personality",0.0],["only",0.0],["IST",0.0],["abama",0.0],["▁gains",0.0],["▁commonly",0.0],["▁terr",0.0],["▁hypot",0.0],["▁rely",0.0],["▁tiss",0.0],["isconsin",0.0],["▁ridic",0.0],["function",0.0],["▁Oregon",0.0],["▁uncom",0.0],["rating",0.0],["eland",0.0],["▁NC",0.0],["▁moon",0.0],["annon",0.0],["▁vulnerable",0.0],["utive",0.0],["ÂłÂłÂłÂł",0.0],["▁Radio",0.0],["▁western",0.0],["sect",0.0],["▁Tony",0.0],["▁occurs",0.0],["▁Os",0.0],["▁Hon",0.0],["ÃŃ",0.0],["▁vessel",0.0],["▁Scotland",0.0],["▁discrimination",0.0],["▁subsequent",0.0],["string",0.0],["▁fantasy",0.0],["▁Shadow",0.0],["▁testim",0.0],["WE",0.0],["iti",0.0],["ras",0.0],["▁boat",0.0],["▁marks",0.0],["▁ordinary",0.0],["▁ren",0.0],["▁representative",0.0],["▁petition",0.0],["▁73",0.0],["▁adventure",0.0],["▁ignore",0.0],["▁Philadelphia",0.0],["▁Sav",0.0],["VP",0.0],["▁factory",0.0],["▁tasks",0.0],["▁depression",0.0],["zed",0.0],["................................",0.0],["▁Storm",0.0],["▁cogn",0.0],["▁eligible",0.0],["▁reducing",0.0],["via",0.0],["▁05",0.0],["▁striking",0.0],["▁dollar",0.0],["ho",0.0],["OV",0.0],["▁instrument",0.0],["▁philosophy",0.0],["▁Moore",0.0],["▁Avenue",0.0],["▁ruled",0.0],["▁Front",0.0],["INE",0.0],["▁Mah",0.0],["▁scenario",0.0],["▁NASA",0.0],["▁enorm",0.0],["▁debut",0.0],["▁tea",0.0],["Today",0.0],["▁absence",0.0],["Sim",0.0],["▁ham",0.0],["leep",0.0],["▁tables",0.0],["▁Heart",0.0],["MI",0.0],["Ke",0.0],["requ",0.0],["VD",0.0],["map",0.0],["▁chairman",0.0],["▁pump",0.0],["▁rapidly",0.0],["vi",0.0],["▁substantial",0.0],["EP",0.0],["des",0.0],["chant",0.0],["ilipp",0.0],["▁Santa",0.0],["riers",0.0],["anchester",0.0],["Load",0.0],["▁Case",0.0],["▁saving",0.0],["▁74",0.0],["▁AFP",0.0],["erning",0.0],["ounced",0.0],["▁Minnesota",0.0],["▁Was",0.0],["▁recru",0.0],["▁assessment",0.0],["▁Bron",0.0],["UE",0.0],["▁dynamic",0.0],["▁furn",0.0],["ulator",0.0],["▁propag",0.0],["high",0.0],["▁accommod",0.0],["▁stack",0.0],["▁Sus",0.0],["writ",0.0],["▁reven",0.0],["▁Godd",0.0],["▁Zealand",0.0],["abs",0.0],["▁brut",0.0],["▁perpet",0.0],["hot",0.0],["▁hardly",0.0],["▁Burn",0.0],["ãĤ¹",0.0],["▁sty",0.0],["▁transactions",0.0],["▁gate",0.0],["▁screens",0.0],["▁submitted",0.0],["▁101",0.0],["▁languages",0.0],["ught",0.0],["emen",0.0],["▁falls",0.0],["▁coc",0.0],["Ĥ¬",0.0],["▁strikes",0.0],["pa",0.0],["▁deliber",0.0],["▁IM",0.0],["▁relax",0.0],["annels",0.0],["▁Senator",0.0],["▁extrem",0.0],["▁},",0.0],["▁Deb",0.0],["▁bell",0.0],["▁disorder",0.0],["cut",0.0],["▁iOS",0.0],["▁locked",0.0],["▁emissions",0.0],["▁shortly",0.0],["\"]",0.0],["▁Judge",0.0],["▁Sometimes",0.0],["▁rival",0.0],["▁dust",0.0],["▁reaching",0.0],["File",0.0],["Â¯Â¯Â¯Â¯",0.0],["inois",0.0],["▁Jason",0.0],["▁satell",0.0],["aret",0.0],["▁stations",0.0],["▁agric",0.0],["▁Technology",0.0],["comes",0.0],["▁Unfortunately",0.0],["▁Children",0.0],["▁applies",0.0],["asted",0.0],["▁anger",0.0],["ailability",0.0],["▁Damage",0.0],["▁compare",0.0],["▁Standard",0.0],["▁aimed",0.0],["▁Ba",0.0],["anguage",0.0],["▁regulation",0.0],["▁jury",0.0],["▁airport",0.0],["▁sections",0.0],["▁Prince",0.0],["emed",0.0],["▁medicine",0.0],["▁hitting",0.0],["▁spark",0.0],["olves",0.0],["▁ads",0.0],["State",0.0],["▁foods",0.0],["▁replacement",0.0],["▁chicken",0.0],["▁lowest",0.0],["▁minds",0.0],["▁involves",0.0],["ui",0.0],["▁arrang",0.0],["▁procedures",0.0],["▁Which",0.0],["iversary",0.0],["▁bills",0.0],["▁improvement",0.0],["▁inev",0.0],["▁expectations",0.0],["▁intellectual",0.0],["▁spaces",0.0],["▁mechanism",0.0],["250",0.0],["break",0.0],["▁Ze",0.0],["▁Tenn",0.0],["▁Balt",0.0],["▁barrel",0.0],["▁static",0.0],["mann",0.0],["Police",0.0],["▁tips",0.0],["▁handling",0.0],["cus",0.0],["oded",0.0],["ilton",0.0],["iry",0.0],["▁journalists",0.0],["ourse",0.0],["▁comic",0.0],["▁nomine",0.0],["ITY",0.0],["▁versus",0.0],["▁loop",0.0],["▁surf",0.0],["▁Indust",0.0],["▁Hunter",0.0],["▁beliefs",0.0],["isan",0.0],["▁setup",0.0],["▁brew",0.0],["image",0.0],["▁computers",0.0],["fol",0.0],["},\"",0.0],["▁Medal",0.0],["▁taxp",0.0],["▁displayed",0.0],["▁grav",0.0],["▁fiscal",0.0],["Mon",0.0],["▁Moscow",0.0],["▁Kong",0.0],["▁Centre",0.0],["▁cameras",0.0],["▁Mrs",0.0],["▁Hay",0.0],["▁aver",0.0],["▁Kelly",0.0],["py",0.0],["▁requirement",0.0],["▁entitled",0.0],["ombie",0.0],["▁shadow",0.0],["agic",0.0],["▁Ak",0.0],["▁elite",0.0],["▁divided",0.0],["▁heading",0.0],["▁copies",0.0],["▁losses",0.0],["▁vit",0.0],["ked",0.0],["▁Bry",0.0],["▁ans",0.0],["▁Steam",0.0],["▁reporter",0.0],["heim",0.0],["▁Item",0.0],["▁superior",0.0],["don",0.0],["erent",0.0],["Ã¶",0.0],["▁therapy",0.0],["▁peak",0.0],["▁Model",0.0],["▁lying",0.0],["▁gam",0.0],["zer",0.0],["ritten",0.0],["▁responses",0.0],["▁consideration",0.0],["▁Bible",0.0],["▁loyal",0.0],["▁instant",0.0],["▁pm",0.0],["▁Forest",0.0],["Ã¼",0.0],["▁extend",0.0],["▁convicted",0.0],["▁founder",0.0],["▁convin",0.0],["▁Oak",0.0],["check",0.0],["▁scholars",0.0],["ped",0.0],["▁overse",0.0],["Top",0.0],["count",0.0],["▁Ark",0.0],["Â·",0.0],["▁06",0.0],["▁LA",0.0],["md",0.0],["▁Latin",0.0],["imental",0.0],["▁CPU",0.0],["▁substance",0.0],["▁minority",0.0],["▁manufacturing",0.0],["Er",0.0],["ocolate",0.0],["▁attended",0.0],["▁Manager",0.0],["rations",0.0],["▁appreciate",0.0],["omy",0.0],["GBT",0.0],["idency",0.0],["BL",0.0],["▁guarantee",0.0],["position",0.0],["▁ocean",0.0],["clude",0.0],["▁headed",0.0],["▁tape",0.0],["▁loose",0.0],["▁logic",0.0],["▁proven",0.0],["▁spir",0.0],["▁admit",0.0],["isa",0.0],["▁investigate",0.0],["▁1994",0.0],["sylv",0.0],["▁Lost",0.0],["cest",0.0],["▁71",0.0],["▁requested",0.0],["▁windows",0.0],["▁PokÃ©",0.0],["▁Without",0.0],["Met",0.0],["▁behaviour",0.0],["▁reader",0.0],["▁hung",0.0],["▁Keep",0.0],["▁roles",0.0],["▁implemented",0.0],["▁blank",0.0],["▁serves",0.0],["▁Jay",0.0],["▁cited",0.0],["▁Friend",0.0],["profit",0.0],["apon",0.0],["▁repair",0.0],["item",0.0],["arrass",0.0],["▁critics",0.0],["adi",0.0],["▁Father",0.0],["▁shout",0.0],["▁fool",0.0],["▁88",0.0],["▁producing",0.0],["▁lib",0.0],["▁rounds",0.0],["▁circle",0.0],["▁prepar",0.0],["▁submit",0.0],["▁nic",0.0],["morrow",0.0],["ãĥ«",0.0],["Under",0.0],["▁vital",0.0],["atern",0.0],["▁password",0.0],["▁publication",0.0],["▁prominent",0.0],["▁speaks",0.0],["▁bars",0.0],["▁deeper",0.0],["▁Mill",0.0],["ported",0.0],["▁wid",0.0],["▁butter",0.0],["▁smoking",0.0],["▁indicates",0.0],["Key",0.0],["ropri",0.0],["▁File",0.0],["alling",0.0],["asting",0.0],["▁Rus",0.0],["▁adj",0.0],["▁79",0.0],["aval",0.0],["▁presum",0.0],["burgh",0.0],["onic",0.0],["▁fur",0.0],["▁polls",0.0],["ika",0.0],["▁secondary",0.0],["▁monster",0.0],["igs",0.0],["▁Current",0.0],["Event",0.0],["▁ownership",0.0],["endar",0.0],["▁arrive",0.0],["▁Tax",0.0],["▁null",0.0],["▁Priv",0.0],["▁thro",0.0],["▁kiss",0.0],["cat",0.0],["▁upset",0.0],["angle",0.0],["itches",0.0],["ector",0.0],["ologists",0.0],["▁Galaxy",0.0],["▁corruption",0.0],["▁hint",0.0],["enter",0.0],["▁Hospital",0.0],["▁greatly",0.0],["▁begun",0.0],["esy",0.0],["▁soil",0.0],["▁Anton",0.0],["▁maintenance",0.0],["ãĥ©",0.0],["▁dozens",0.0],["▁humanity",0.0],["▁Alabama",0.0],["▁rom",0.0],["worth",0.0],["aping",0.0],["sylvania",0.0],["lah",0.0],["▁gathered",0.0],["GA",0.0],["▁attacking",0.0],["found",0.0],["▁Square",0.0],["▁arbit",0.0],["ictions",0.0],["▁Wisconsin",0.0],["▁dance",0.0],["▁Saint",0.0],["archy",0.0],["▁baseball",0.0],["▁contributions",0.0],["▁literature",0.0],["▁exha",0.0],["perty",0.0],["test",0.0],["▁bab",0.0],["▁container",0.0],["letter",0.0],["▁fallen",0.0],["▁websites",0.0],["▁bottle",0.0],["▁Sac",0.0],["▁breast",0.0],["▁PL",0.0],["▁veteran",0.0],["▁interviews",0.0],["▁Ale",0.0],["▁banned",0.0],["engers",0.0],["▁Revolution",0.0],["inth",0.0],["▁concerning",0.0],["IVE",0.0],["▁expenses",0.0],["▁Matthew",0.0],["▁Columbia",0.0],["ds",0.0],["istance",0.0],["▁entity",0.0],["...\"",0.0],["▁reliable",0.0],["▁paralle",0.0],["▁Christians",0.0],["▁opinions",0.0],["▁indu",0.0],["low",0.0],["▁compete",0.0],["▁thorough",0.0],["▁employed",0.0],["▁establishment",0.0],["igen",0.0],["▁Cro",0.0],["▁lawyers",0.0],["▁Station",0.0],["TE",0.0],["▁Lind",0.0],["▁Pur",0.0],["itary",0.0],["▁efficiency",0.0],["âĢĲ",0.0],["▁Ly",0.0],["▁mask",0.0],["▁disaster",0.0],["▁ages",0.0],["ERE",0.0],["esis",0.0],["▁Hold",0.0],["▁casual",0.0],["bled",0.0],["▁enabled",0.0],["▁Environment",0.0],["▁Intelligence",0.0],["iper",0.0],["▁Map",0.0],["▁BE",0.0],["▁emerged",0.0],["isdom",0.0],["▁cabin",0.0],["▁registration",0.0],["▁fingers",0.0],["▁roster",0.0],["▁framework",0.0],["▁Doctor",0.0],["etts",0.0],["▁transportation",0.0],["▁awareness",0.0],["Her",0.0],["▁attempting",0.0],["Off",0.0],["▁Store",0.0],["ÃĥÃĤÃĥÃĤÃĥÃĤÃĥÃĤ",0.0],["▁Know",0.0],["▁defence",0.0],["▁scan",0.0],["▁Ten",0.0],["▁Chair",0.0],["▁PH",0.0],["▁Atlanta",0.0],["▁fucking",0.0],["▁answered",0.0],["bn",0.0],["▁Kar",0.0],["▁categories",0.0],["▁rational",0.0],["▁cust",0.0],["▁robot",0.0],["▁correctly",0.0],["▁gif",0.0],["▁graphics",0.0],["mic",0.0],["▁grounds",0.0],["▁Opp",0.0],["iate",0.0],["▁distributed",0.0],["▁sanctions",0.0],["▁challenging",0.0],["uto",0.0],["▁ingredients",0.0],["▁invited",0.0],["▁founded",0.0],["▁Requ",0.0],["ded",0.0],["▁bowl",0.0],["▁brothers",0.0],["▁Ha",0.0],["IO",0.0],["▁wages",0.0],["imore",0.0],["ocial",0.0],["▁seed",0.0],["atively",0.0],["▁addresses",0.0],["▁Iowa",0.0],["abeth",0.0],["▁attitude",0.0],["isd",0.0],["child",0.0],["▁mole",0.0],["▁discovery",0.0],["yard",0.0],["Br",0.0],["▁82",0.0],["▁supplies",0.0],["elling",0.0],["▁distingu",0.0],["CR",0.0],["▁recept",0.0],["▁vert",0.0],["▁swim",0.0],["bec",0.0],["door",0.0],["▁Yeah",0.0],["▁gal",0.0],["▁interact",0.0],["▁ESP",0.0],["▁CS",0.0],["amps",0.0],["▁convinced",0.0],["▁objective",0.0],["▁dish",0.0],["▁Photos",0.0],["lad",0.0],["▁downtown",0.0],["oil",0.0],["inction",0.0],["▁tomorrow",0.0],["▁COM",0.0],["▁survival",0.0],["shot",0.0],["▁settlement",0.0],["Cons",0.0],["▁Xbox",0.0],["interest",0.0],["▁SM",0.0],["argo",0.0],["eness",0.0],["▁ethnic",0.0],["bered",0.0],["Min",0.0],["▁Tok",0.0],["▁incent",0.0],["▁Command",0.0],["▁maintained",0.0],["▁breaks",0.0],["bridge",0.0],["atar",0.0],["agg",0.0],["▁Finally",0.0],["unicip",0.0],["▁Ont",0.0],["left",0.0],["▁recognition",0.0],["▁*/",0.0],["▁Pers",0.0],["▁welf",0.0],["▁addressed",0.0],["▁Kansas",0.0],["▁virus",0.0],["▁whereas",0.0],["▁papers",0.0],["rams",0.0],["▁Ministry",0.0],["▁pleasure",0.0],["▁acquired",0.0],["▁duration",0.0],["jpg",0.0],["▁calm",0.0],["▁NHL",0.0],["▁burning",0.0],["▁folder",0.0],["icked",0.0],["▁Py",0.0],["▁Illinois",0.0],["Class",0.0],["▁Goddess",0.0],["▁performing",0.0],["▁welfare",0.0],["jar",0.0],["Inter",0.0],["▁lin",0.0],["▁enhance",0.0],["▁notion",0.0],["fare",0.0],["ypes",0.0],["▁Area",0.0],["▁cannabis",0.0],["▁Diego",0.0],["fs",0.0],["▁Manchester",0.0],["comm",0.0],["inite",0.0],["▁covering",0.0],["▁Sound",0.0],["▁1960",0.0],["▁84",0.0],["elect",0.0],["zing",0.0],["▁citizen",0.0],["▁phones",0.0],["▁raid",0.0],["▁ignored",0.0],["▁Object",0.0],["▁upload",0.0],["card",0.0],["▁modified",0.0],["▁rooms",0.0],["iah",0.0],["range",0.0],["heast",0.0],["achus",0.0],["▁suggesting",0.0],["âĢĭ",0.0],["grade",0.0],["El",0.0],["▁clothing",0.0],["▁rh",0.0],["▁Han",0.0],["unity",0.0],["encing",0.0],["▁Austin",0.0],["secution",0.0],["tra",0.0],["dem",0.0],["▁Qual",0.0],["▁heaven",0.0],["▁stages",0.0],["▁wedd",0.0],["plus",0.0],["ificial",0.0],["▁Imm",0.0],["▁Ho",0.0],["ieties",0.0],["▁phrase",0.0],["▁brill",0.0],["actory",0.0],["▁providers",0.0],["▁silence",0.0],["▁aer",0.0],["▁AI",0.0],["▁Adventure",0.0],["▁platforms",0.0],["▁demonstrated",0.0],["▁interf",0.0],["ington",0.0],["▁races",0.0],["▁grade",0.0],["ultane",0.0],["▁Through",0.0],["false",0.0],["▁bow",0.0],["▁AB",0.0],["▁flavor",0.0],["▁historic",0.0],["gov",0.0],["▁colour",0.0],["▁viewed",0.0],["▁Email",0.0],["elcome",0.0],["▁intervention",0.0],["▁diversity",0.0],["▁periods",0.0],["▁reverse",0.0],["▁Very",0.0],["▁quote",0.0],["▁Left",0.0],["through",0.0],["▁screw",0.0],["▁landing",0.0],["▁pill",0.0],["▁wet",0.0],["▁protesters",0.0],["▁repeat",0.0],["aved",0.0],["erk",0.0],["▁salary",0.0],["▁Pennsylvania",0.0],["Still",0.0],["▁mayor",0.0],["▁kitchen",0.0],["▁featuring",0.0],["▁Museum",0.0],["▁Tournament",0.0],["▁Fal",0.0],["▁servers",0.0],["UC",0.0],["▁anybody",0.0],["img",0.0],["▁Trade",0.0],["ixture",0.0],["theless",0.0],["▁finance",0.0],["▁closing",0.0],["▁Patri",0.0],["iac",0.0],["abel",0.0],["▁>>",0.0],["orous",0.0],["▁firms",0.0],["screen",0.0],["una",0.0],["▁embarrass",0.0],["ulse",0.0],["▁letting",0.0],["▁threw",0.0],["iley",0.0],["▁channels",0.0],["lan",0.0],["▁Vegas",0.0],["▁sear",0.0],["▁fantastic",0.0],["arre",0.0],["uzzle",0.0],["▁Der",0.0],["Those",0.0],["▁swing",0.0],["▁sheet",0.0],["index",0.0],["cover",0.0],["ogan",0.0],["▁variables",0.0],["▁Tech",0.0],["▁spoken",0.0],["achel",0.0],["▁Da",0.0],["▁Mountain",0.0],["▁loaded",0.0],["▁footage",0.0],["version",0.0],["▁unl",0.0],["▁Phoenix",0.0],["▁throwing",0.0],["▁firing",0.0],["▁tracking",0.0],["▁width",0.0],["▁struggling",0.0],["rooms",0.0],["otion",0.0],["▁monthly",0.0],["▁Server",0.0],["▁eggs",0.0],["open",0.0],["MC",0.0],["▁1993",0.0],["▁hired",0.0],["▁stayed",0.0],["▁Allen",0.0],["▁stro",0.0],["▁98",0.0],["step",0.0],["▁Turkish",0.0],["▁fabric",0.0],["isting",0.0],["▁Dom",0.0],["▁dates",0.0],["▁pron",0.0],["▁basketball",0.0],["▁lucky",0.0],["▁Arabia",0.0],["▁assumed",0.0],["esty",0.0],["▁affairs",0.0],["▁glad",0.0],["▁Indeed",0.0],["▁FA",0.0],["▁Word",0.0],["▁joining",0.0],["ifice",0.0],["pread",0.0],["irts",0.0],["▁Select",0.0],["▁populations",0.0],["aware",0.0],["▁nose",0.0],["▁complaints",0.0],["start",0.0],["▁scoring",0.0],["Thanks",0.0],["▁mining",0.0],["▁visitors",0.0],["SH",0.0],["▁damaged",0.0],["▁characteristics",0.0],["▁Pent",0.0],["DC",0.0],["▁83",0.0],["▁Six",0.0],["rates",0.0],["▁flags",0.0],["▁Brew",0.0],["dog",0.0],["Mark",0.0],["////",0.0],["▁execution",0.0],["▁joke",0.0],["phones",0.0],["▁testimony",0.0],["▁obst",0.0],["QL",0.0],["▁Cut",0.0],["▁studied",0.0],["▁Nintendo",0.0],["icket",0.0],["▁NBC",0.0],["▁lad",0.0],["▁Bra",0.0],["▁Moh",0.0],["▁kernel",0.0],["▁overwhelming",0.0],["▁aged",0.0],["▁applicable",0.0],["▁Cond",0.0],["▁roads",0.0],["▁Block",0.0],["made",0.0],["odge",0.0],["▁commands",0.0],["▁offices",0.0],["veland",0.0],["▁tut",0.0],["▁receiver",0.0],["▁Fro",0.0],["▁shopping",0.0],["▁iP",0.0],["▁Stre",0.0],["▁ABC",0.0],["▁entertainment",0.0],["▁Bow",0.0],["orted",0.0],["Mc",0.0],["▁reads",0.0],["grad",0.0],["▁Collect",0.0],["▁âĪĴ",0.0],["▁Capital",0.0],["ederation",0.0],["▁employer",0.0],["▁involvement",0.0],["▁anxiety",0.0],["alia",0.0],["▁roof",0.0],["▁Among",0.0],["▁Democrat",0.0],["▁stats",0.0],["▁Vill",0.0],["▁constitutional",0.0],["▁referring",0.0],["itty",0.0],["▁tackle",0.0],["outube",0.0],["▁backed",0.0],["▁Hong",0.0],["▁Broad",0.0],["▁ele",0.0],["▁Ott",0.0],["▁1992",0.0],["hour",0.0],["achusetts",0.0],["Cal",0.0],["▁defeated",0.0],["▁81",0.0],["esp",0.0],["▁seemingly",0.0],["was",0.0],["▁Jenn",0.0],["▁Kurd",0.0],["▁gene",0.0],["▁discount",0.0],["Ret",0.0],["ECT",0.0],["();",0.0],["▁clubs",0.0],["▁sid",0.0],["▁Marsh",0.0],["Check",0.0],["▁pp",0.0],["▁Eag",0.0],["idespread",0.0],["▁beings",0.0],["FT",0.0],["▁introduction",0.0],["▁Change",0.0],["ARD",0.0],["▁110",0.0],["adows",0.0],["ierce",0.0],["▁meal",0.0],["author",0.0],["▁Bang",0.0],["lahoma",0.0],["▁ranks",0.0],["2011",0.0],["????",0.0],["max",0.0],["▁collapse",0.0],["▁opens",0.0],["▁echo",0.0],["▁soph",0.0],["▁racist",0.0],["▁enormous",0.0],["▁waves",0.0],["▁tap",0.0],["▁comprehensive",0.0],[".--",0.0],["▁Roy",0.0],["▁farmers",0.0],["Related",0.0],["aired",0.0],["rones",0.0],["▁Crim",0.0],["▁proportion",0.0],["▁designs",0.0],["▁negotiations",0.0],["▁virtually",0.0],["▁Batman",0.0],["▁warn",0.0],["▁legitimate",0.0],["mate",0.0],["▁convention",0.0],[",,",0.0],["netic",0.0],["▁SD",0.0],["▁consistently",0.0],["▁compensation",0.0],["▁punishment",0.0],["▁ye",0.0],["▁tie",0.0],["▁Bureau",0.0],["irlf",0.0],["▁Bu",0.0],["▁Aren",0.0],["▁Philipp",0.0],["▁knife",0.0],["▁memories",0.0],["▁Ross",0.0],["▁angle",0.0],["▁86",0.0],["▁Thunder",0.0],["▁rend",0.0],["▁Tour",0.0],["▁counts",0.0],["sung",0.0],["▁Imp",0.0],["▁educational",0.0],["▁accessible",0.0],["COM",0.0],["▁drew",0.0],["yer",0.0],["Gl",0.0],["amine",0.0],["ORT",0.0],["OB",0.0],["IB",0.0],["master",0.0],["▁trials",0.0],["ogy",0.0],["har",0.0],["▁Trust",0.0],["▁preferred",0.0],["irlfriend",0.0],["▁Nev",0.0],["▁bin",0.0],["▁cow",0.0],["Page",0.0],["▁signature",0.0],["▁BL",0.0],["700",0.0],["▁retired",0.0],["▁bytes",0.0],["▁neighb",0.0],["▁Legend",0.0],["▁devast",0.0],["▁suspected",0.0],["isons",0.0],["▁PokÃ©mon",0.0],["scale",0.0],["▁capabilities",0.0],["▁revel",0.0],["▁cheese",0.0],["dy",0.0],["igrant",0.0],["▁failing",0.0],["bits",0.0],["▁Heroes",0.0],["▁Ghost",0.0],["▁Scient",0.0],["▁appointed",0.0],["uri",0.0],["▁institution",0.0],["▁expanded",0.0],["greg",0.0],["▁monitoring",0.0],["▁podcast",0.0],["▁coalition",0.0],["▁96",0.0],["Jo",0.0],["▁stolen",0.0],["▁Sab",0.0],["▁stops",0.0],["▁holiday",0.0],["▁intr",0.0],["Car",0.0],["Black",0.0],["▁LGBT",0.0],["▁warming",0.0],["▁Anderson",0.0],["▁89",0.0],["▁producer",0.0],["Med",0.0],["▁accuracy",0.0],["▁Marvel",0.0],["izabeth",0.0],["▁Patrick",0.0],["mony",0.0],["▁mini",0.0],["acles",0.0],["▁overt",0.0],["they",0.0],["▁membership",0.0],["▁Ven",0.0],["▁exch",0.0],["▁removal",0.0],["▁Dave",0.0],["TY",0.0],["mad",0.0],["▁Find",0.0],["▁adequ",0.0],["▁ec",0.0],["▁teeth",0.0],["▁emotion",0.0],["▁perm",0.0],["▁solely",0.0],["db",0.0],["▁extraord",0.0],["IGHT",0.0],["cal",0.0],["▁guidelines",0.0],["▁dying",0.0],["▁suspended",0.0],["▁Premier",0.0],["▁Anthony",0.0],["elve",0.0],["▁dad",0.0],["▁Eth",0.0],["▁Football",0.0],["▁abandoned",0.0],["▁<<",0.0],["▁march",0.0],["▁horror",0.0],["âĢ¦\"",0.0],["▁childhood",0.0],["▁campaigns",0.0],["▁lunch",0.0],["▁Albert",0.0],["block",0.0],["âĸĪâĸĪ",0.0],["ounding",0.0],["▁bone",0.0],["organ",0.0],["aders",0.0],["▁Flash",0.0],["▁Drive",0.0],["▁tonight",0.0],["▁wars",0.0],["▁FL",0.0],["▁formation",0.0],["const",0.0],["News",0.0],["▁compe",0.0],["orious",0.0],["▁Staff",0.0],["▁discussions",0.0],["▁Protection",0.0],["▁Jam",0.0],["▁criteria",0.0],["▁installation",0.0],["▁accomplish",0.0],["izza",0.0],["▁publisher",0.0],["▁rescue",0.0],["▁Try",0.0],["ULL",0.0],["▁Som",0.0],["▁Hop",0.0],["oret",0.0],["ths",0.0],["ordon",0.0],["▁pocket",0.0],["▁Inv",0.0],["Download",0.0],["▁Crime",0.0],["▁bene",0.0],["▁Guide",0.0],["▁Assembly",0.0],["▁parameters",0.0],["IE",0.0],["▁Alexander",0.0],["▁concert",0.0],["▁Sche",0.0],["▁shoes",0.0],["▁visiting",0.0],["▁recall",0.0],["▁bub",0.0],["▁rural",0.0],["▁concrete",0.0],["▁Ros",0.0],["Next",0.0],["Russ",0.0],["▁loans",0.0],["▁Shield",0.0],["▁trem",0.0],["hemat",0.0],["kg",0.0],["▁Harris",0.0],["isition",0.0],["▁Move",0.0],["▁FC",0.0],["▁fate",0.0],["▁Cho",0.0],["▁tired",0.0],["▁principal",0.0],["hist",0.0],["iences",0.0],["athy",0.0],["▁sevent",0.0],["▁mood",0.0],["▁strategic",0.0],["▁diseases",0.0],["▁forum",0.0],["▁tempor",0.0],["▁headquarters",0.0],["Par",0.0],["ige",0.0],["flix",0.0],["▁guitar",0.0],["▁94",0.0],["Only",0.0],["▁releases",0.0],["roph",0.0],["================================",0.0],["▁600",0.0],["▁Continue",0.0],["igate",0.0],["▁Crit",0.0],["system",0.0],["▁disabled",0.0],["▁unexpected",0.0],["ithub",0.0],["▁unclear",0.0],["▁Est",0.0],["▁contrad",0.0],["▁strategies",0.0],["ventures",0.0],["▁passage",0.0],["AME",0.0],["▁improving",0.0],["▁reveals",0.0],["▁decrease",0.0],["ova",0.0],["▁annoy",0.0],["▁Short",0.0],["▁Library",0.0],["▁cyber",0.0],["nell",0.0],["▁Hur",0.0],["▁CB",0.0],["▁photograp",0.0],["UI",0.0],["▁sed",0.0],["Ge",0.0],["▁87",0.0],["▁diverse",0.0],["▁encouraged",0.0],["▁conspiracy",0.0],["▁birds",0.0],["▁operator",0.0],["▁handful",0.0],["▁classified",0.0],["?)",0.0],["▁dramatic",0.0],["▁investigators",0.0],["ito",0.0],["▁widespread",0.0],["▁Room",0.0],["----------------------------------------------------------------",0.0],["▁collective",0.0],["▁journalist",0.0],["String",0.0],["▁temperatures",0.0],["ila",0.0],["▁guid",0.0],["▁inspect",0.0],["▁missile",0.0],["▁Mayor",0.0],["▁manual",0.0],["▁simultane",0.0],["▁ratings",0.0],["▁suck",0.0],["▁97",0.0],["▁universal",0.0],["▁pharm",0.0],["▁disrupt",0.0],["iano",0.0],["AV",0.0],["▁ft",0.0],["▁statist",0.0],["olds",0.0],["▁Walker",0.0],["php",0.0],["▁undert",0.0],["▁Las",0.0],["ishop",0.0],["ntil",0.0],["reshold",0.0],["▁Whether",0.0],["Ms",0.0],["▁deny",0.0],["▁Cloud",0.0],["▁provider",0.0],["▁surviv",0.0],["▁Update",0.0],["has",0.0],["▁mistakes",0.0],["charge",0.0],["pled",0.0],["rity",0.0],["▁node",0.0],["▁Massachusetts",0.0],["ools",0.0],["lication",0.0],["▁fails",0.0],["emale",0.0],["ori",0.0],["backs",0.0],["▁shirt",0.0],["▁''",0.0],["▁NAT",0.0],["▁waters",0.0],["elson",0.0],["▁ease",0.0],["▁scar",0.0],["▁contents",0.0],["mind",0.0],["▁contribution",0.0],["▁shr",0.0],["▁handed",0.0],["▁stability",0.0],["▁trave",0.0],["Em",0.0],["▁mirror",0.0],["123",0.0],["▁weigh",0.0],["▁fiction",0.0],["ouver",0.0],["istant",0.0],["rition",0.0],["▁Fed",0.0],["▁physically",0.0],["▁stake",0.0],["▁Article",0.0],["▁Arc",0.0],["▁Lewis",0.0],["▁Mind",0.0],["▁demonstrate",0.0],["▁profits",0.0],["vision",0.0],["omic",0.0],["olid",0.0],["▁battles",0.0],["▁drives",0.0],["▁eastern",0.0],["▁Sony",0.0],["!!!",0.0],["aration",0.0],["vard",0.0],["▁GL",0.0],["portation",0.0],["▁92",0.0],["▁lawmakers",0.0],["▁protecting",0.0],["▁EPA",0.0],["▁yeah",0.0],["▁shame",0.0],["olph",0.0],["even",0.0],["xit",0.0],["▁attach",0.0],["▁representing",0.0],["▁obs",0.0],["▁Utah",0.0],["iffs",0.0],["▁Freedom",0.0],["Ã³",0.0],["AK",0.0],["▁incidents",0.0],["itage",0.0],["▁viewers",0.0],["cd",0.0],["▁mouse",0.0],["▁clar",0.0],["▁accordance",0.0],["▁bot",0.0],["cor",0.0],["▁Summer",0.0],["held",0.0],["▁innocent",0.0],["▁initiative",0.0],["ols",0.0],["________________________________",0.0],["▁spots",0.0],["pace",0.0],["▁conventional",0.0],["▁corporations",0.0],["▁blocked",0.0],["HD",0.0],["attered",0.0],["▁refers",0.0],["▁buck",0.0],["▁Digital",0.0],["120",0.0],["▁topics",0.0],["TF",0.0],["Äģ",0.0],["brid",0.0],["reement",0.0],["▁underlying",0.0],["▁Member",0.0],["▁investigating",0.0],["▁pregnancy",0.0],["▁touchdown",0.0],["▁Band",0.0],["▁Caller",0.0],["▁instances",0.0],["PP",0.0],["wa",0.0],["Good",0.0],["▁1991",0.0],["▁Cold",0.0],["▁fears",0.0],["▁remarks",0.0],["ĨĴ",0.0],["atal",0.0],["▁mit",0.0],["▁experiments",0.0],["ipt",0.0],["Color",0.0],["indu",0.0],["Update",0.0],["▁93",0.0],["Ag",0.0],["▁å",0.0],["ancouver",0.0],["Both",0.0],["▁judges",0.0],["Object",0.0],["▁stere",0.0],["umbn",0.0],["▁participation",0.0],["▁Stars",0.0],["▁Jere",0.0],["▁weekly",0.0],["▁Ban",0.0],["▁conversations",0.0],["▁Pitt",0.0],["uz",0.0],["▁Indiana",0.0],["▁Kick",0.0],["▁infection",0.0],["▁heroes",0.0],["▁settled",0.0],["▁strip",0.0],["▁hal",0.0],["▁dump",0.0],["▁Sci",0.0],["▁les",0.0],["▁references",0.0],["▁URL",0.0],["▁Bridge",0.0],["▁wanting",0.0],["Force",0.0],["▁exclus",0.0],["Meanwhile",0.0],["mn",0.0],["▁gentle",0.0],["maker",0.0],["senal",0.0],["▁Gro",0.0],["ouri",0.0],["▁Rain",0.0],["▁Alliance",0.0],["▁lift",0.0],["ela",0.0],["SD",0.0],["▁Cleveland",0.0],["▁ranked",0.0],["▁stadium",0.0],["▁deadly",0.0],["ä¸",0.0],["▁riding",0.0],["aria",0.0],["▁Armor",0.0],["▁documentation",0.0],["▁Greece",0.0],["reek",0.0],["▁lens",0.0],["▁Sa",0.0],["▁gross",0.0],["▁Emer",0.0],["agers",0.0],["▁Dub",0.0],["▁Rh",0.0],["▁AMD",0.0],["▁arrival",0.0],["▁desert",0.0],["▁supplement",0.0],["▁Resp",0.0],["▁knee",0.0],["▁margin",0.0],["font",0.0],["ogg",0.0],["2010",0.0],["▁Pir",0.0],["▁Prom",0.0],["ivals",0.0],["▁intake",0.0],["▁differently",0.0],["ugs",0.0],["▁bits",0.0],["cluded",0.0],["▁searching",0.0],["▁Du",0.0],["umble",0.0],["▁functional",0.0],["▁Baltimore",0.0],["▁Could",0.0],["▁desired",0.0],["▁circuit",0.0],["▁Lyn",0.0],["▁GO",0.0],["▁False",0.0],["repre",0.0],["':",0.0],["alties",0.0],["▁minim",0.0],["▁drove",0.0],["▁Should",0.0],["▁hip",0.0],["▁pros",0.0],["▁utility",0.0],["▁Nature",0.0],["▁Mode",0.0],["President",0.0],["opp",0.0],["rat",0.0],["formance",0.0],["▁concentration",0.0],["▁font",0.0],["▁Bud",0.0],["▁amid",0.0],["▁revers",0.0],["▁ML",0.0],["Bar",0.0],["▁interaction",0.0],["▁jurisd",0.0],["▁spells",0.0],["dep",0.0],["fil",0.0],["▁civilians",0.0],["utter",0.0],["▁Cooper",0.0],["▁Below",0.0],["▁entrance",0.0],["▁convert",0.0],["▁controversy",0.0],["owered",0.0],["▁contrary",0.0],["▁arc",0.0],["▁Executive",0.0],["▁Officer",0.0],["▁packages",0.0],["▁progressive",0.0],["width",0.0],["▁reserved",0.0],["vol",0.0],["▁Samsung",0.0],["▁printed",0.0],["▁centers",0.0],["▁introduce",0.0],["▁Kennedy",0.0],["▁odds",0.0],["▁surely",0.0],["▁independence",0.0],["▁passengers",0.0],["reprene",0.0],["▁Beh",0.0],["▁loves",0.0],["▁ESPN",0.0],["▁facilit",0.0],["▁identical",0.0],["▁doct",0.0],["▁partnership",0.0],["conf",0.0],["▁Hide",0.0],["▁confused",0.0],["▁Cow",0.0],["Men",0.0],["▁wrest",0.0],["▁Iraqi",0.0],["▁holes",0.0],["▁Studies",0.0],["▁pregnant",0.0],["hard",0.0],["▁signals",0.0],["IX",0.0],["▁pulling",0.0],["▁graduate",0.0],["▁nominee",0.0],["Date",0.0],["▁permitted",0.0],["▁âĤ¬",0.0],["▁Oklahoma",0.0],["Start",0.0],["▁authorized",0.0],["▁alarm",0.0],["▁Cos",0.0],["van",0.0],["▁generations",0.0],["cular",0.0],["▁dragon",0.0],["▁Software",0.0],["▁Edward",0.0],["▁controller",0.0],["Sen",0.0],["gered",0.0],["▁Vik",0.0],["▁approached",0.0],["Thank",0.0],["▁cance",0.0],["▁formula",0.0],["▁Small",0.0],["▁weakness",0.0],["▁ramp",0.0],["itudes",0.0],["jud",0.0],["▁brilliant",0.0],["▁accus",0.0],["source",0.0],["▁800",0.0],["▁Evil",0.0],["Sw",0.0],["▁homeless",0.0],["week",0.0],["iens",0.0],["rics",0.0],["▁Third",0.0],["TO",0.0],["▁organic",0.0],["▁presentation",0.0],["agh",0.0],["▁Download",0.0],["vation",0.0],["▁assembly",0.0],["orable",0.0],["holders",0.0],["▁Bernie",0.0],["▁Help",0.0],["▁tong",0.0],["▁Fight",0.0],["▁beach",0.0],["Book",0.0],["▁Lic",0.0],["▁rush",0.0],["▁Round",0.0],["oup",0.0],["▁Marx",0.0],["▁calculated",0.0],["▁Devil",0.0],["▁Sarah",0.0],["▁occasionally",0.0],["▁bullet",0.0],["Available",0.0],["gate",0.0],["▁91",0.0],["▁hosp",0.0],["▁promises",0.0],["▁HIV",0.0],["▁Stadium",0.0],["▁Stock",0.0],["▁Corporation",0.0],["gage",0.0],["NG",0.0],["▁Credit",0.0],["▁sne",0.0],["ibl",0.0],["▁accum",0.0],["such",0.0],["▁terrorists",0.0],["▁consciousness",0.0],["▁Zh",0.0],["▁drama",0.0],["oola",0.0],["piration",0.0],["▁labour",0.0],["▁Nin",0.0],["▁utter",0.0],["▁democratic",0.0],["▁assass",0.0],["ilation",0.0],["▁gest",0.0],["▁abroad",0.0],["▁metab",0.0],["▁sorts",0.0],["▁flav",0.0],["UB",0.0],["▁mg",0.0],["▁Nothing",0.0],["▁Od",0.0],["▁musical",0.0],["2009",0.0],["▁drops",0.0],["ocated",0.0],["ateral",0.0],["000000",0.0],["▁gre",0.0],["▁equality",0.0],["▁burden",0.0],["▁vig",0.0],["▁Leader",0.0],["------------",0.0],["▁ceremony",0.0],["▁fighter",0.0],["▁actors",0.0],["▁æ",0.0],["aman",0.0],["Fi",0.0],["▁align",0.0],["puter",0.0],["▁elder",0.0],["▁NSA",0.0],["▁representation",0.0],["▁Ontario",0.0],["ITH",0.0],["usalem",0.0],["▁harassment",0.0],["itzer",0.0],["▁symp",0.0],["▁boxes",0.0],["▁DR",0.0],["▁manifest",0.0],["atre",0.0],["▁^",0.0],["▁dies",0.0],["leton",0.0],["▁missions",0.0],["ethe",0.0],["▁resolve",0.0],["▁followers",0.0],["▁asc",0.0],["▁km",0.0],["lord",0.0],["ammed",0.0],["▁silent",0.0],["▁Associated",0.0],["▁timing",0.0],["▁prisoners",0.0],["▁Kings",0.0],["▁Five",0.0],["▁tower",0.0],["▁approaches",0.0],["▁precisely",0.0],["▁bureau",0.0],["▁Mother",0.0],["▁Iss",0.0],["▁keyboard",0.0],["itual",0.0],["▁funded",0.0],["▁staying",0.0],["▁psychological",0.0],["▁mile",0.0],["▁Leon",0.0],["▁Barb",0.0],["will",0.0],["▁wider",0.0],["▁Atlantic",0.0],["▁till",0.0],["▁Rome",0.0],["rot",0.0],["▁accompan",0.0],["▁flour",0.0],["aco",0.0],["World",0.0],["▁Express",0.0],["▁Yu",0.0],["Cor",0.0],["▁pleased",0.0],["party",0.0],["▁pointing",0.0],["▁inflation",0.0],["▁roy",0.0],["▁),",0.0],["ainer",0.0],["▁wedding",0.0],["ormon",0.0],["▁requiring",0.0],["▁qualified",0.0],["▁segment",0.0],["END",0.0],["▁sizes",0.0],["eals",0.0],["▁corrupt",0.0],["assador",0.0],["▁celeb",0.0],["▁dreams",0.0],["▁Mess",0.0],["▁checking",0.0],["▁Version",0.0],["▁preparing",0.0],["▁actively",0.0],["▁Diff",0.0],["▁lux",0.0],["▁Winter",0.0],["acteria",0.0],["▁NE",0.0],["▁deputy",0.0],["▁transgender",0.0],["▁summary",0.0],["▁inher",0.0],["eries",0.0],["char",0.0],["▁Yan",0.0],["▁knock",0.0],["▁Path",0.0],["▁lip",0.0],["roller",0.0],["▁impression",0.0],["▁celebrate",0.0],["▁slide",0.0],["▁guests",0.0],["▁clip",0.0],["FS",0.0],["▁savings",0.0],["▁captain",0.0],["▁legacy",0.0],["▁Denver",0.0],["▁wounded",0.0],["taboola",0.0],["ACT",0.0],["▁pursue",0.0],["▁oxy",0.0],["▁q",0.0],["▁semi",0.0],["▁Need",0.0],["▁Affairs",0.0],["▁obsc",0.0],["▁checked",0.0],["▁dual",0.0],["Code",0.0],["▁MD",0.0],["lem",0.0],["ulty",0.0],["▁Â©",0.0],["▁Elizabeth",0.0],["▁centuries",0.0],["arded",0.0],["src",0.0],["▁evident",0.0],["ennis",0.0],["atin",0.0],["▁unemployment",0.0],["▁Mario",0.0],["▁intim",0.0],["Christ",0.0],["▁biological",0.0],["▁soldier",0.0],["▁Added",0.0],["▁math",0.0],["▁Gil",0.0],["▁bias",0.0],["▁dating",0.0],["▁Ocean",0.0],["▁mice",0.0],["Mus",0.0],["hire",0.0],["▁Tes",0.0],["Server",0.0],["limited",0.0],["Size",0.0],["▁meters",0.0],["▁rocket",0.0],["essee",0.0],["▁certificate",0.0],["▁Iranian",0.0],["ASS",0.0],["▁grid",0.0],["Dec",0.0],["▁rolling",0.0],["commun",0.0],["▁Sweden",0.0],["bury",0.0],["▁tissue",0.0],["▁racism",0.0],["▁Local",0.0],["▁mystery",0.0],["▁examine",0.0],["▁stem",0.0],["▁sits",0.0],["▁hoped",0.0],["oting",0.0],["▁dialogue",0.0],["▁persu",0.0],["Watch",0.0],["lay",0.0],["MAN",0.0],["▁chronic",0.0],["▁Portland",0.0],["market",0.0],["▁SEC",0.0],["▁parallel",0.0],["▁scandal",0.0],["▁carries",0.0],["▁phenomenon",0.0],["human",0.0],["acker",0.0],["▁Ox",0.0],["▁retirement",0.0],["tainment",0.0],["ovie",0.0],["▁Gear",0.0],["▁duties",0.0],["▁dose",0.0],["▁scroll",0.0],["MB",0.0],["inf",0.0],["▁sauce",0.0],["▁landscape",0.0],["reddit",0.0],["▁Championship",0.0],["▁Reddit",0.0],["alid",0.0],["▁coin",0.0],["▁overs",0.0],["▁posting",0.0],["about",0.0],["▁fel",0.0],["andy",0.0],["▁bold",0.0],["▁focusing",0.0],["effect",0.0],["GR",0.0],["▁deemed",0.0],["▁recommendations",0.0],["▁stepped",0.0],["▁voter",0.0],["▁Deep",0.0],["▁Instagram",0.0],["▁moderate",0.0],["▁Maryland",0.0],["▁restricted",0.0],["▁MB",0.0],["▁Chall",0.0],["▁tob",0.0],["▁cir",0.0],["▁Occ",0.0],["▁Ever",0.0],["▁collaps",0.0],["INFO",0.0],["=-",0.0],["▁Pict",0.0],["▁Account",0.0],["nc",0.0],["▁ought",0.0],["▁export",0.0],["▁drunk",0.0],["('",0.0],["▁wise",0.0],["▁Mort",0.0],["necess",0.0],["▁ancest",0.0],["▁Incre",0.0],["▁frequent",0.0],["mir",0.0],["▁interpretation",0.0],["▁dependent",0.0],["▁coins",0.0],["▁Bol",0.0],["Video",0.0],["▁Justin",0.0],["▁fatal",0.0],["▁cooking",0.0],["▁confusion",0.0],["ipher",0.0],["▁custody",0.0],["▁Morgan",0.0],["omach",0.0],["▁Governor",0.0],["▁restaurants",0.0],["eling",0.0],["▁acknowledged",0.0],["▁ther",0.0],["▁genes",0.0],["ching",0.0],["Hey",0.0],["▁tactics",0.0],["▁Mexican",0.0],["▁vend",0.0],["▁hes",0.0],["quer",0.0],["▁noting",0.0],["▁Cameron",0.0],["▁targeting",0.0],["rock",0.0],["▁credits",0.0],["▁emotions",0.0],["▁representatives",0.0],["news",0.0],["▁legislative",0.0],["▁removing",0.0],["▁tweeted",0.0],["▁Carter",0.0],["▁Fixed",0.0],["▁forcing",0.0],["▁speaker",0.0],["▁males",0.0],["▁Vietnam",0.0],["lined",0.0],["▁concepts",0.0],["▁voices",0.0],["oir",0.0],["▁Trib",0.0],["Whe",0.0],["▁Jerusalem",0.0],["▁Sant",0.0],["▁cul",0.0],["▁lady",0.0],["▁Hawai",0.0],["▁arts",0.0],["▁Inn",0.0],["▁Machine",0.0],["▁Emperor",0.0],["▁slot",0.0],["gly",0.0],["▁Process",0.0],["III",0.0],["▁athletes",0.0],["▁Temple",0.0],["▁Represent",0.0],["▁presc",0.0],["▁tons",0.0],["▁golden",0.0],["▁punch",0.0],["▁GR",0.0],["iverpool",0.0],["▁enact",0.0],["▁lobby",0.0],["▁mos",0.0],["▁picking",0.0],["▁lifetime",0.0],["▁cognitive",0.0],["Each",0.0],["zo",0.0],["▁dub",0.0],["▁consists",0.0],["oln",0.0],["▁festival",0.0],["amous",0.0],["▁intellig",0.0],["words",0.0],["▁Smart",0.0],["▁dele",0.0],["▁lapt",0.0],["▁magical",0.0],["▁Sin",0.0],["bus",0.0],["urities",0.0],["ighth",0.0],["▁Ruby",0.0],["▁Sure",0.0],["olving",0.0],["▁jun",0.0],["OST",0.0],["▁imposed",0.0],["▁astron",0.0],["▁correl",0.0],["▁NS",0.0],["▁Kit",0.0],["▁Future",0.0],["burn",0.0],["▁immune",0.0],["ocus",0.0],["▁courses",0.0],["▁String",0.0],["▁lean",0.0],["▁ghost",0.0],["▁outcomes",0.0],["▁expense",0.0],["▁everyday",0.0],["▁acceptable",0.0],["Ah",0.0],["▁equipped",0.0],["▁orange",0.0],["FR",0.0],["▁Dutch",0.0],["Though",0.0],["▁Rank",0.0],["QU",0.0],["▁Roberts",0.0],["what",0.0],["rend",0.0],["▁disappear",0.0],["▁spawn",0.0],["▁Lam",0.0],["ois",0.0],["▁deserve",0.0],["▁minimal",0.0],["▁nervous",0.0],["▁Would",0.0],["▁rook",0.0],["▁Vancouver",0.0],["▁resign",0.0],["shire",0.0],["▁Works",0.0],["▁Build",0.0],["▁affordable",0.0],["▁Gary",0.0],["▁Arena",0.0],["▁hanging",0.0],["▁implications",0.0],["▁Song",0.0],["▁maintaining",0.0],["▁guards",0.0],["CON",0.0],["▁derived",0.0],["▁executed",0.0],["▁theories",0.0],["▁quoted",0.0],["▁Andre",0.0],["oga",0.0],["seless",0.0],["info",0.0],["▁Belg",0.0],["▁tears",0.0],["▁Surv",0.0],["▁birthday",0.0],["igious",0.0],["immer",0.0],["▁spectrum",0.0],["▁architecture",0.0],["▁recruit",0.0],["arma",0.0],["Table",0.0],["▁monsters",0.0],["▁Gov",0.0],["▁destination",0.0],["▁attractive",0.0],["▁foss",0.0],["▁Moreover",0.0],["▁presents",0.0],["THE",0.0],["▁reply",0.0],["pton",0.0],["▁cum",0.0],["▁delight",0.0],["▁affects",0.0],["▁donations",0.0],["▁Toy",0.0],["▁Him",0.0],["MENT",0.0],["▁overcome",0.0],["itched",0.0],["▁Fantasy",0.0],["▁Hat",0.0],["▁Beast",0.0],["bott",0.0],["▁investigations",0.0],["Run",0.0],["▁hunting",0.0],["di",0.0],["fund",0.0],["▁sessions",0.0],["estyle",0.0],["▁portray",0.0],["oids",0.0],["Yeah",0.0],["▁communicate",0.0],["▁comedy",0.0],["▁Yang",0.0],["▁belt",0.0],["▁Marine",0.0],["▁predicted",0.0],["Play",0.0],["▁importantly",0.0],["▁remarkable",0.0],["▁eliminate",0.0],["David",0.0],["▁bind",0.0],["VID",0.0],["▁advocates",0.0],["▁Gaza",0.0],["imp",0.0],["DB",0.0],["▁Na",0.0],["▁Similar",0.0],["IES",0.0],["▁charity",0.0],["vas",0.0],["math",0.0],["▁âĸ",0.0],["oker",0.0],["ndum",0.0],["▁caps",0.0],["▁Hal",0.0],["2000",0.0],["ean",0.0],["▁fleet",0.0],["▁recre",0.0],["Right",0.0],["▁sleeping",0.0],["ijing",0.0],["kind",0.0],["▁designated",0.0],["Ã¤",0.0],["▁animation",0.0],["kee",0.0],["▁Introdu",0.0],["▁/>",0.0],["▁delayed",0.0],["▁tremend",0.0],["▁curious",0.0],["Use",0.0],["▁lect",0.0],["dam",0.0],["▁innovation",0.0],["▁Points",0.0],["▁loading",0.0],["▁dispute",0.0],["ctic",0.0],["irds",0.0],["▁BY",0.0],["▁nurs",0.0],["▁Value",0.0],["IONS",0.0],["▁Hum",0.0],["▁template",0.0],["mers",0.0],["▁appearances",0.0],["▁Entertainment",0.0],["▁translation",0.0],["▁sake",0.0],["▁beneath",0.0],["▁inhib",0.0],["▁euro",0.0],["abetes",0.0],["▁studying",0.0],["▁Mas",0.0],["▁perceived",0.0],["▁examined",0.0],["▁eager",0.0],["▁coaches",0.0],["▁imper",0.0],["chi",0.0],["▁produces",0.0],["\").",0.0],["▁Everyone",0.0],["▁municip",0.0],["▁girlfriend",0.0],["▁hire",0.0],["▁Vice",0.0],["▁suitable",0.0],["opy",0.0],["▁inequ",0.0],["▁Duke",0.0],["fish",0.0],["first",0.0],["▁Obs",0.0],["▁interior",0.0],["▁Bruce",0.0],["▁Ry",0.0],["▁analys",0.0],["▁considerable",0.0],["▁forecast",0.0],["▁fert",0.0],["orship",0.0],["▁Drug",0.0],["▁ALL",0.0],[":\"",0.0],["thur",0.0],["▁Mail",0.0],["▁ballot",0.0],["▁instantly",0.0],["▁Channel",0.0],["▁picks",0.0],["▁1989",0.0],["▁tent",0.0],["oli",0.0],["▁civilian",0.0],["bling",0.0],["ello",0.0],["bu",0.0],["▁inch",0.0],["▁logo",0.0],["▁cooperation",0.0],["▁walks",0.0],["▁investments",0.0],["▁imprison",0.0],["▁Festival",0.0],["▁Ky",0.0],["▁legally",0.0],["▁gri",0.0],["charg",0.0],["Sl",0.0],["▁threatening",0.0],["duction",0.0],["flow",0.0],["▁dismissed",0.0],["ibraries",0.0],["cap",0.0],["ele",0.0],["▁McG",0.0],["▁Harvard",0.0],["▁Conservative",0.0],["▁CBS",0.0],["png",0.0],["▁roots",0.0],["▁Having",0.0],["umbled",0.0],["▁Fun",0.0],["\\/",0.0],["▁Search",0.0],["plex",0.0],["▁discussing",0.0],["▁continu",0.0],["▁Tai",0.0],["▁Wik",0.0],["Free",0.0],["fit",0.0],["▁refuse",0.0],["▁managing",0.0],["▁synd",0.0],["ipedia",0.0],["walk",0.0],["▁professionals",0.0],["▁guidance",0.0],["▁universities",0.0],["▁assemb",0.0],["untu",0.0],["Finally",0.0],["ASE",0.0],["▁Auto",0.0],["▁Had",0.0],["▁anniversary",0.0],["LD",0.0],["▁Dur",0.0],["▁Ultimate",0.0],["ihad",0.0],["product",0.0],["▁transit",0.0],["▁restore",0.0],["▁explaining",0.0],["▁asset",0.0],["▁transferred",0.0],["▁burst",0.0],["apolis",0.0],["▁Magazine",0.0],["▁Cra",0.0],["▁BR",0.0],["gged",0.0],["▁HE",0.0],["Mich",0.0],["bet",0.0],["▁Lady",0.0],["ylum",0.0],["erves",0.0],["▁meets",0.0],["white",0.0],["Log",0.0],["▁corresponding",0.0],["▁insisted",0.0],["GG",0.0],["▁surrounded",0.0],["▁tens",0.0],["▁lane",0.0],["▁coinc",0.0],["home",0.0],["▁existed",0.0],["ected",0.0],["▁Double",0.0],["lamm",0.0],["▁skept",0.0],["exp",0.0],["▁perception",0.0],["iev",0.0],["▁Being",0.0],["oft",0.0],["▁adopt",0.0],[".:",0.0],["];",0.0],["Windows",0.0],["▁satellite",0.0],["ASH",0.0],["▁infant",0.0],["description",0.0],["▁Meanwhile",0.0],["cm",0.0],["oca",0.0],["▁Treat",0.0],["actor",0.0],["▁tobacco",0.0],["▁Norm",0.0],["emption",0.0],["▁flesh",0.0],["▁je",0.0],["oop",0.0],["▁Heaven",0.0],["▁beating",0.0],["anim",0.0],["▁gathering",0.0],["▁cultiv",0.0],["GO",0.0],["abe",0.0],["▁Jonathan",0.0],["▁Safety",0.0],["▁badly",0.0],["prot",0.0],["▁choosing",0.0],["▁contacted",0.0],["▁quit",0.0],["▁distur",0.0],["▁stir",0.0],["▁token",0.0],["Det",0.0],["▁Pa",0.0],["▁functionality",0.0],["003",0.0],["some",0.0],["▁limitations",0.0],["▁meth",0.0],["build",0.0],["config",0.0],["NT",0.0],["rell",0.0],["blem",0.0],["▁Mom",0.0],["▁veterans",0.0],["▁Hu",0.0],["▁trends",0.0],["arer",0.0],["▁Given",0.0],["▁Caption",0.0],["may",0.0],["AST",0.0],["▁wondering",0.0],["▁Clark",0.0],["normal",0.0],["▁separated",0.0],["▁desp",0.0],["stic",0.0],["brew",0.0],["▁relating",0.0],["▁Nik",0.0],["▁Farm",0.0],["▁enthusi",0.0],["good",0.0],["deb",0.0],["▁activist",0.0],["▁mart",0.0],["▁explosion",0.0],["▁Economic",0.0],["Link",0.0],["▁insight",0.0],["▁convenient",0.0],["▁counterpart",0.0],["support",0.0],["▁Virt",0.0],["agen",0.0],["▁Tennessee",0.0],["▁Simon",0.0],["▁Award",0.0],["OCK",0.0],["▁Figure",0.0],["▁overseas",0.0],["▁pride",0.0],["▁Cas",0.0],["note",0.0],["mg",0.0],["Current",0.0],["▁displays",0.0],["content",0.0],["▁traveling",0.0],["▁hospitals",0.0],["▁Financial",0.0],["▁Past",0.0],["▁defendant",0.0],["▁streaming",0.0],["mble",0.0],["▁Berlin",0.0],["uki",0.0],["▁distribut",0.0],["▁antib",0.0],["▁chocolate",0.0],["▁Castle",0.0],["▁interrupt",0.0],["▁Row",0.0],["▁conversion",0.0],["▁bugs",0.0],["▁Rather",0.0],["liest",0.0],["LY",0.0],["▁Jean",0.0],["common",0.0],["akh",0.0],["▁130",0.0],["otton",0.0],["▁Dean",0.0],["▁amendment",0.0],["▁gameplay",0.0],["▁Warren",0.0],["oda",0.0],["▁highlights",0.0],["▁irre",0.0],["▁NATO",0.0],["▁balls",0.0],["▁demanding",0.0],["URE",0.0],["▁Luke",0.0],["Figure",0.0],["stop",0.0],["onia",0.0],["zone",0.0],["izers",0.0],["▁WR",0.0],["▁awarded",0.0],["▁regulatory",0.0],["▁Hart",0.0],["▁SN",0.0],["pling",0.0],["▁sour",0.0],["▁Pixel",0.0],["usive",0.0],["▁fet",0.0],["▁Sent",0.0],["▁automatic",0.0],["▁fer",0.0],["vernment",0.0],["▁Khan",0.0],["TON",0.0],["father",0.0],["▁extraordinary",0.0],["throp",0.0],["▁Python",0.0],["▁GPU",0.0],["▁sexually",0.0],["▁desktop",0.0],["itivity",0.0],["▁Antonio",0.0],["▁orient",0.0],["▁ears",0.0],["obby",0.0],["ouses",0.0],["vertisements",0.0],["▁manufacturers",0.0],["icient",0.0],["minute",0.0],["▁conviction",0.0],["▁garden",0.0],["public",0.0],["▁satisfied",0.0],["fold",0.0],["OK",0.0],["▁inhab",0.0],["▁Think",0.0],["▁programme",0.0],["▁stomach",0.0],["▁coordin",0.0],["▁holy",0.0],["▁threshold",0.0],["▁rhet",0.0],["▁serial",0.0],["▁employers",0.0],["▁Everything",0.0],["rah",0.0],["▁bother",0.0],["▁brands",0.0],["Value",0.0],["▁Ted",0.0],["▁Planet",0.0],["▁pink",0.0],["▁Furthermore",0.0],["sa",0.0],["PE",0.0],["reck",0.0],["▁USD",0.0],["otte",0.0],["▁&&",0.0],["▁landed",0.0],["gets",0.0],["▁producers",0.0],["▁healthcare",0.0],["▁dominant",0.0],["▁destro",0.0],["▁amended",0.0],["chron",0.0],["▁fits",0.0],["▁Syd",0.0],["▁Authority",0.0],["ATCH",0.0],["▁fights",0.0],["▁LLC",0.0],["▁---",0.0],["▁Corp",0.0],["▁toxic",0.0],["specific",0.0],["▁Corn",0.0],["▁Chel",0.0],["▁telephone",0.0],["▁Pant",0.0],["▁mysterious",0.0],["aunch",0.0],["odox",0.0],["media",0.0],["▁witnesses",0.0],["agu",0.0],["▁questioned",0.0],["▁Brexit",0.0],["▁Remember",0.0],["enez",0.0],["▁endorse",0.0],["iatric",0.0],["▁Ident",0.0],["▁ridiculous",0.0],["110",0.0],["▁prayer",0.0],["▁scientist",0.0],["▁1950",0.0],["▁Aqu",0.0],["▁underground",0.0],["▁UFC",0.0],["mare",0.0],["▁Later",0.0],["wich",0.0],["▁subscrib",0.0],["▁hosts",0.0],["▁err",0.0],["▁grants",0.0],["antom",0.0],["▁summon",0.0],["early",0.0],["▁Clear",0.0],["▁Prim",0.0],["▁suspension",0.0],["▁guaranteed",0.0],["apper",0.0],["▁rice",0.0],["▁Sean",0.0],["▁Shin",0.0],["▁referendum",0.0],["▁fled",0.0],["rust",0.0],["▁360",0.0],["tery",0.0],["▁shocked",0.0],["BR",0.0],["▁Oil",0.0],["▁Allah",0.0],["▁partly",0.0],["▁ignor",0.0],["▁transmission",0.0],["▁homosexual",0.0],["iversal",0.0],["▁hopefully",0.0],["ãĤ¤",0.0],["▁lesson",0.0],["Leg",0.0],["▁..",0.0],["Yet",0.0],["table",0.0],["appropri",0.0],["rett",0.0],["▁boards",0.0],["▁incorrect",0.0],["▁bacteria",0.0],["aru",0.0],["amac",0.0],["▁snap",0.0],[".'\"",0.0],["▁parad",0.0],["tem",0.0],["heart",0.0],["▁availability",0.0],["▁wisdom",0.0],["▁(+",0.0],["▁priest",0.0],["▁Âł▁Âł",0.0],["Open",0.0],["▁span",0.0],["▁parameter",0.0],["▁convince",0.0],["▁(%)",0.0],["rac",0.0],["▁fo",0.0],["▁safely",0.0],["▁converted",0.0],["▁Olympic",0.0],["▁reserve",0.0],["▁healing",0.0],["▁Mine",0.0],["Max",0.0],["▁inherent",0.0],["▁Graham",0.0],["▁integrated",0.0],["Dem",0.0],["▁pipeline",0.0],["▁applying",0.0],["▁embed",0.0],["▁Charlie",0.0],["▁cave",0.0],["2008",0.0],["▁consensus",0.0],["▁rewards",0.0],["Pal",0.0],["▁HTML",0.0],["▁popularity",0.0],["looking",0.0],["▁Sword",0.0],["▁Arts",0.0],["')",0.0],["▁electron",0.0],["clusions",0.0],["▁integrity",0.0],["▁exclusively",0.0],["▁grace",0.0],["▁torture",0.0],["▁burned",0.0],["two",0.0],["▁180",0.0],["Produ",0.0],["▁entreprene",0.0],["raphics",0.0],["▁gym",0.0],["ricane",0.0],["▁Tam",0.0],["▁administrative",0.0],["▁manufacturer",0.0],["▁vel",0.0],["▁Ni",0.0],["▁isolated",0.0],["▁Medicine",0.0],["▁backup",0.0],["▁promoting",0.0],["▁commander",0.0],["▁flee",0.0],["▁Russell",0.0],["▁forgotten",0.0],["▁Missouri",0.0],["▁residence",0.0],["mons",0.0],["▁resemb",0.0],["▁wand",0.0],["▁meaningful",0.0],["PT",0.0],["▁bol",0.0],["▁helic",0.0],["▁wealthy",0.0],["▁rifle",0.0],["strong",0.0],["rowing",0.0],["plan",0.0],["asury",0.0],["âĢ¦.",0.0],["▁expanding",0.0],["▁Hamilton",0.0],["▁receives",0.0],["SI",0.0],["eatures",0.0],["▁Anim",0.0],["REE",0.0],["Put",0.0],["▁briefly",0.0],["rive",0.0],["▁stimul",0.0],["▁``(",0.0],["▁__",0.0],["▁chip",0.0],["▁haz",0.0],["▁prize",0.0],["▁Things",0.0],["ACE",0.0],["ulin",0.0],["dict",0.0],["oku",0.0],["▁associate",0.0],["ockets",0.0],["youtube",0.0],["Story",0.0],["ategory",0.0],["▁mild",0.0],["ailing",0.0],["▁Ye",0.0],["Orig",0.0],["▁Ka",0.0],["orig",0.0],["▁propaganda",0.0],["▁anonymous",0.0],["▁struggled",0.0],["▁outrage",0.0],["ATED",0.0],["▁Beijing",0.0],["rary",0.0],["▁leather",0.0],["▁worlds",0.0],["▁broader",0.0],["125",0.0],["idal",0.0],["▁Better",0.0],["▁tear",0.0],["Ext",0.0],["▁proposals",0.0],["▁iter",0.0],["▁Squad",0.0],["▁volunt",0.0],["mi",0.0],["Did",0.0],["▁Pu",0.0],["pin",0.0],["▁speakers",0.0],["▁borders",0.0],["▁figured",0.0],["='",0.0],["▁simultaneously",0.0],["aeda",0.0],["▁charging",0.0],["▁urged",0.0],["▁conj",0.0],["256",0.0],["▁Gordon",0.0],["merce",0.0],["▁documentary",0.0],["Share",0.0],["itol",0.0],["ONE",0.0],["▁Garden",0.0],["hatt",0.0],["▁Thompson",0.0],["aneous",0.0],["apore",0.0],["▁tanks",0.0],["▁lessons",0.0],["track",0.0],["▁outstanding",0.0],["▁volunteers",0.0],["▁spray",0.0],["▁managers",0.0],["large",0.0],["▁camps",0.0],["▁artificial",0.0],["▁Ru",0.0],["▁bags",0.0],["thal",0.0],["▁compatible",0.0],["▁Blade",0.0],["▁fed",0.0],["▁argues",0.0],["FI",0.0],["▁unfair",0.0],["▁corn",0.0],["▁offset",0.0],["▁directions",0.0],["▁disappointed",0.0],["▁Convention",0.0],["▁viewing",0.0],["ME",0.0],["ocity",0.0],["▁towns",0.0],["▁layers",0.0],["▁rolled",0.0],["▁jumped",0.0],["▁attribute",0.0],["▁unnecess",0.0],["incoln",0.0],["▁suppose",0.0],["▁Nether",0.0],["cha",0.0],["▁buried",0.0],["▁sixth",0.0],["Ben",0.0],["ressing",0.0],["OUR",0.0],["▁wound",0.0],["▁cycl",0.0],["▁mechanisms",0.0],["▁congressional",0.0],["▁Element",0.0],["▁agreements",0.0],["▁decor",0.0],["▁closest",0.0],["▁Mit",0.0],["Google",0.0],["}}",0.0],["▁mixture",0.0],["▁fluid",0.0],["Sign",0.0],["▁Scholar",0.0],["▁pist",0.0],["asket",0.0],["abling",0.0],["▁racing",0.0],["hero",0.0],["riel",0.0],["assy",0.0],["▁cheaper",0.0],["ben",0.0],["▁vertical",0.0],["amacare",0.0],["▁Reading",0.0],["gments",0.0],["▁helicop",0.0],["▁sacrifice",0.0],["aya",0.0],["paren",0.0],["VA",0.0],["▁Les",0.0],["▁Studio",0.0],["▁violations",0.0],["▁Anna",0.0],["acer",0.0],["é¾",0.0],["▁Rat",0.0],["▁Beck",0.0],["▁Dick",0.0],["▁ACT",0.0],["▁composition",0.0],["▁texture",0.0],["▁Own",0.0],["▁smartphone",0.0],["▁NA",0.0],["▁forb",0.0],["import",0.0],["▁defending",0.0],["ilst",0.0],["rer",0.0],["▁oh",0.0],["▁Jeremy",0.0],["▁banking",0.0],["ceptions",0.0],["▁respective",0.0],["/.",0.0],["▁drinks",0.0],["▁Wi",0.0],["▁bands",0.0],["▁Liverpool",0.0],["▁grip",0.0],["▁Buy",0.0],["▁openly",0.0],["▁reviewed",0.0],["pert",0.0],["▁verify",0.0],["▁Cole",0.0],["▁Wales",0.0],["MO",0.0],["▁unpre",0.0],["▁shelter",0.0],["▁Imperial",0.0],["▁gui",0.0],["▁Dak",0.0],["▁suggestions",0.0],["▁explicitly",0.0],["▁slave",0.0],["▁blockchain",0.0],["▁competing",0.0],["▁promising",0.0],["SON",0.0],["▁soccer",0.0],["▁constitution",0.0],["429",0.0],["▁distract",0.0],["▁User",0.0],["esides",0.0],["▁Method",0.0],["▁Tokyo",0.0],["▁accompanied",0.0],["Client",0.0],["sur",0.0],["alog",0.0],["▁identification",0.0],["▁invasion",0.0],["asma",0.0],["▁industries",0.0],["ppers",0.0],["▁subtle",0.0],["▁Unit",0.0],["natural",0.0],["▁survived",0.0],["▁flaw",0.0],["ĺħ",0.0],["▁Holl",0.0],["▁deficit",0.0],["▁tutorial",0.0],["▁Chance",0.0],["▁arguing",0.0],["▁contemporary",0.0],["▁integration",0.0],["forward",0.0],["▁tum",0.0],["itis",0.0],["▁hiding",0.0],["▁Domin",0.0],["▁Tan",0.0],["▁Building",0.0],["▁Vin",0.0],["▁spokesperson",0.0],["▁Notes",0.0],["▁emerging",0.0],["▁preparation",0.0],["▁prost",0.0],["▁suspects",0.0],["▁autonom",0.0],["Description",0.0],["▁dealt",0.0],["▁Pear",0.0],["▁steady",0.0],["▁decreased",0.0],["▁sovere",0.0],["▁Clin",0.0],["▁gradually",0.0],["orses",0.0],["▁WAR",0.0],["Serv",0.0],["ãĤ¢",0.0],["hr",0.0],["▁dirty",0.0],["▁Barn",0.0],["▁BC",0.0],["▁dil",0.0],["▁calendar",0.0],["▁compliance",0.0],["▁chamber",0.0],["bb",0.0],["▁passenger",0.0],["ateful",0.0],["▁Title",0.0],["▁Sydney",0.0],["▁Got",0.0],["▁darkness",0.0],["▁defect",0.0],["▁packed",0.0],["assion",0.0],["▁gods",0.0],["▁harsh",0.0],["ICK",0.0],["leans",0.0],["▁algorithm",0.0],["▁oxygen",0.0],["▁visits",0.0],["▁blade",0.0],["▁kilomet",0.0],["▁Kentucky",0.0],["▁killer",0.0],["Pack",0.0],["enny",0.0],["▁divine",0.0],["▁nomination",0.0],["being",0.0],["▁engines",0.0],["▁cats",0.0],["▁buffer",0.0],["▁Phill",0.0],["▁traff",0.0],["AGE",0.0],["▁tongue",0.0],["▁radiation",0.0],["erer",0.0],["mem",0.0],["▁Explicit",0.0],["é¾į",0.0],["▁couples",0.0],["▁physics",0.0],["▁McK",0.0],["▁politically",0.0],["awks",0.0],["▁Bloom",0.0],["▁worship",0.0],["eger",0.0],["uter",0.0],["▁FO",0.0],["▁mathemat",0.0],["▁sentenced",0.0],["▁disk",0.0],["▁Marg",0.0],["▁/*",0.0],["PI",0.0],["▁optional",0.0],["▁babies",0.0],["▁seeds",0.0],["▁Scottish",0.0],["▁thy",0.0],["]]",0.0],["▁Hitler",0.0],["PH",0.0],["ngth",0.0],["▁recovered",0.0],["inge",0.0],["▁powder",0.0],["▁lips",0.0],["▁designer",0.0],["▁disorders",0.0],["▁courage",0.0],["▁chaos",0.0],["\"},{\"",0.0],["▁carrier",0.0],["bably",0.0],["High",0.0],["▁RT",0.0],["esity",0.0],["len",0.0],["▁routes",0.0],["uating",0.0],["Fil",0.0],["NOT",0.0],["wall",0.0],["sburgh",0.0],["▁engaging",0.0],["▁JavaScript",0.0],["orer",0.0],["lihood",0.0],["▁unions",0.0],["▁Federation",0.0],["▁Tesla",0.0],["▁completion",0.0],["▁Ta",0.0],["▁privilege",0.0],["▁Orange",0.0],["▁neur",0.0],["parency",0.0],["▁bones",0.0],["▁titled",0.0],["▁prosecutors",0.0],["▁ME",0.0],["▁engineer",0.0],["▁Universe",0.0],["▁Hig",0.0],["nie",0.0],["oard",0.0],["▁hearts",0.0],["▁Gre",0.0],["ussion",0.0],["▁ministry",0.0],["▁penet",0.0],["▁Nut",0.0],["▁Ow",0.0],["▁XP",0.0],["instein",0.0],["▁bulk",0.0],["System",0.0],["icism",0.0],["▁Marketable",0.0],["▁preval",0.0],["▁poster",0.0],["▁attending",0.0],["urable",0.0],["▁licensed",0.0],["▁Gh",0.0],["etry",0.0],["▁Tradable",0.0],["▁blast",0.0],["à¤",0.0],["▁Titan",0.0],["elled",0.0],["die",0.0],["Have",0.0],["▁Flame",0.0],["▁profound",0.0],["▁participating",0.0],["▁anime",0.0],["▁Ess",0.0],["▁specify",0.0],["▁regarded",0.0],["▁Spell",0.0],["▁sons",0.0],["owned",0.0],["▁merc",0.0],["▁experimental",0.0],["lando",0.0],["hs",0.0],["▁Dungeon",0.0],["inos",0.0],["▁comply",0.0],["▁Systems",0.0],["arth",0.0],["▁seized",0.0],["local",0.0],["▁Girls",0.0],["udo",0.0],["oned",0.0],["▁Fle",0.0],["▁constructed",0.0],["▁hosted",0.0],["▁scared",0.0],["actic",0.0],["▁Islands",0.0],["▁MORE",0.0],["▁bless",0.0],["▁blocking",0.0],["▁chips",0.0],["▁evac",0.0],["Ps",0.0],["▁corporation",0.0],["▁ox",0.0],["▁lighting",0.0],["▁neighbors",0.0],["▁Ub",0.0],["aro",0.0],["▁beef",0.0],["▁Uber",0.0],["Facebook",0.0],["armed",0.0],["itate",0.0],["▁Rating",0.0],["▁Quick",0.0],["▁occupied",0.0],["▁aims",0.0],["▁Additionally",0.0],["▁Interest",0.0],["▁dramatically",0.0],["▁heal",0.0],["▁painting",0.0],["▁engineers",0.0],["MM",0.0],["▁Must",0.0],["▁quantity",0.0],["Paul",0.0],["▁earnings",0.0],["▁Posts",0.0],["stra",0.0],["ãĥ¼ãĥ",0.0],["▁stance",0.0],["▁dropping",0.0],["script",0.0],["▁dressed",0.0],["Make",0.0],["▁justify",0.0],["▁Ltd",0.0],["▁prompted",0.0],["▁scrut",0.0],["▁speeds",0.0],["▁Giants",0.0],["omer",0.0],["▁Editor",0.0],["▁describing",0.0],["▁Lie",0.0],["mented",0.0],["▁nowhere",0.0],["ocaly",0.0],["▁instruction",0.0],["fortable",0.0],["▁entities",0.0],["▁cm",0.0],["▁Natural",0.0],["▁inquiry",0.0],["▁pressed",0.0],["izont",0.0],["forced",0.0],["▁raises",0.0],["▁Netflix",0.0],["▁Side",0.0],["▁outer",0.0],["▁amongst",0.0],["ims",0.0],["owski",0.0],["▁climb",0.0],["never",0.0],["▁combine",0.0],["ding",0.0],["▁compr",0.0],["▁significance",0.0],["▁remembered",0.0],["▁Nevada",0.0],["▁Tel",0.0],["▁Scar",0.0],["▁Warriors",0.0],["▁Jane",0.0],["▁coup",0.0],["bas",0.0],["▁terminal",0.0],[",-",0.0],["OH",0.0],["▁tension",0.0],["▁wings",0.0],["▁Myster",0.0],["ï¿½ï¿½ï¿½ï¿½",0.0],["▁Unlike",0.0],["valid",0.0],["vironments",0.0],["▁Ali",0.0],["▁naked",0.0],["books",0.0],["▁Mun",0.0],["▁Gulf",0.0],["▁density",0.0],["▁dimin",0.0],["▁desperate",0.0],["▁presidency",0.0],["▁1986",0.0],["hy",0.0],["IND",0.0],["▁unlock",0.0],["imens",0.0],["▁handled",0.0],["▁Eb",0.0],["▁disappeared",0.0],["▁genre",0.0],["▁1988",0.0],["▁determination",0.0],["Stream",0.0],["iko",0.0],["apters",0.0],["▁acknowledge",0.0],["Jan",0.0],["▁capitalism",0.0],["Pat",0.0],["▁2020",0.0],["▁painful",0.0],["▁curve",0.0],["▁bombs",0.0],["storm",0.0],["▁Metal",0.0],["encer",0.0],["▁Fig",0.0],["▁Aaron",0.0],["anches",0.0],["▁inspiration",0.0],["▁exhaust",0.0],["tains",0.0],["ashi",0.0],["▁descript",0.0],["▁ritual",0.0],["▁Chelsea",0.0],["▁promotion",0.0],["▁Hung",0.0],["▁Ward",0.0],["iva",0.0],["▁ET",0.0],["▁toss",0.0],["allow",0.0],["▁Francis",0.0],["Dep",0.0],["▁happiness",0.0],["▁Glass",0.0],["▁beta",0.0],["▁strengthen",0.0],["NE",0.0],["oa",0.0],["▁buttons",0.0],["▁Murray",0.0],["▁kicked",0.0],["Quest",0.0],["▁Talk",0.0],["▁Several",0.0],["▁Zero",0.0],["▁drone",0.0],["ulk",0.0],["▁cam",0.0],["▁Mobile",0.0],["▁preventing",0.0],["▁retro",0.0],["▁Ax",0.0],["▁cruel",0.0],["▁float",0.0],[".),",0.0],["▁filing",0.0],["▁Grant",0.0],["▁Bor",0.0],["▁rib",0.0],["▁championship",0.0],["▁Merc",0.0],["▁styles",0.0],["▁cake",0.0],["▁builds",0.0],["▁Self",0.0],["iox",0.0],["▁epic",0.0],["oyd",0.0],["Bel",0.0],["▁Stew",0.0],[".(",0.0],["ahu",0.0],["▁Beyond",0.0],["▁outs",0.0],["▁solo",0.0],["▁Tree",0.0],["▁preserve",0.0],["▁tub",0.0],["ARE",0.0],["roc",0.0],["▁Impro",0.0],["▁Wright",0.0],["▁bund",0.0],["▁traged",0.0],["▁occasional",0.0],["bian",0.0],["Second",0.0],["rons",0.0],["▁interactions",0.0],["formed",0.0],["sing",0.0],["▁owns",0.0],["▁hockey",0.0],["General",0.0],["▁logical",0.0],["▁expend",0.0],["▁escal",0.0],["▁Griff",0.0],["▁Crown",0.0],["▁Reserve",0.0],["▁stopping",0.0],["▁excuse",0.0],["second",0.0],["▁operated",0.0],["▁reaches",0.0],["▁Malays",0.0],["▁pollution",0.0],["▁Brooklyn",0.0],["▁delete",0.0],["▁hash",0.0],["Block",0.0],["aha",0.0],["âĢ³",0.0],["▁shorter",0.0],["piece",0.0],["></",0.0],["▁horm",0.0],["▁Wat",0.0],["▁Break",0.0],["▁prohibited",0.0],["▁intensity",0.0],["▁Alan",0.0],["▁liability",0.0],["?!",0.0],["anded",0.0],["▁neighbour",0.0],["▁Collection",0.0],["▁fires",0.0],["▁revolutionary",0.0],["fly",0.0],["▁Orleans",0.0],["White",0.0],["▁Writ",0.0],["▁Dawn",0.0],["▁settle",0.0],["▁execute",0.0],["BM",0.0],["▁spokeswoman",0.0],["▁lifestyle",0.0],["▁clicking",0.0],["▁Kill",0.0],["▁Liberal",0.0],["▁Nazi",0.0],["▁trailer",0.0],["▁mountains",0.0],["▁damn",0.0],["zes",0.0],["pes",0.0],["▁pressing",0.0],["▁bail",0.0],["▁Organization",0.0],["▁pir",0.0],["▁thirty",0.0],["▁electrical",0.0],["▁115",0.0],["▁Poly",0.0],["▁Rap",0.0],["▁Strike",0.0],["▁Cann",0.0],["▁demanded",0.0],["▁backing",0.0],["default",0.0],["speed",0.0],["▁Legisl",0.0],["▁mothers",0.0],["▁Body",0.0],["▁variation",0.0],["cedented",0.0],["powered",0.0],["leading",0.0],["Never",0.0],["▁grave",0.0],["▁Anti",0.0],["AW",0.0],["▁interviewed",0.0],["▁Gab",0.0],["▁Fat",0.0],["▁rookie",0.0],["uu",0.0],["▁depos",0.0],["ixon",0.0],["▁ampl",0.0],["retion",0.0],["▁Heat",0.0],["▁peaceful",0.0],["SM",0.0],["ieve",0.0],["▁diver",0.0],["▁Victoria",0.0],["▁mic",0.0],["pdf",0.0],["▁stating",0.0],["▁lung",0.0],["▁criticized",0.0],["▁vaccine",0.0],["▁Loading",0.0],["urse",0.0],["Take",0.0],["▁Fran",0.0],["▁Sold",0.0],["▁Robin",0.0],["▁detected",0.0],["▁Script",0.0],["▁adjusted",0.0],["▁senator",0.0],["▁opposing",0.0],["Error",0.0],["Count",0.0],["▁conflicts",0.0],["▁ow",0.0],["▁Argent",0.0],["▁matching",0.0],["hh",0.0],["▁Trek",0.0],["starter",0.0],["\"),",0.0],["▁AF",0.0],["oder",0.0],["xxxx",0.0],["▁Alt",0.0],["acre",0.0],["▁Pick",0.0],["▁Solar",0.0],["▁Dal",0.0],["Oct",0.0],["▁Batt",0.0],["▁src",0.0],["▁engagement",0.0],["▁executives",0.0],["▁liberty",0.0],["java",0.0],["▁talented",0.0],["igenous",0.0],["▁consecut",0.0],[".....",0.0],["Info",0.0],["▁horrible",0.0],["▁surprisingly",0.0],["feed",0.0],["icating",0.0],["▁LED",0.0],["▁females",0.0],["Station",0.0],["eller",0.0],["▁Oakland",0.0],["▁mechanical",0.0],["iology",0.0],["▁Var",0.0],["▁robust",0.0],["ettings",0.0],["otta",0.0],["▁theoret",0.0],["▁retain",0.0],["kward",0.0],["▁da",0.0],["▁deployed",0.0],["del",0.0],["▁Andy",0.0],["▁subscribe",0.0],["web",0.0],["▁na",0.0],["▁Michel",0.0],["▁partially",0.0],["▁Comey",0.0],["▁crown",0.0],["▁Maj",0.0],["▁Blu",0.0],["rator",0.0],["Day",0.0],["INT",0.0],["▁documented",0.0],["▁GDP",0.0],["gi",0.0],["chell",0.0],["▁brutal",0.0],["▁Bab",0.0],["stration",0.0],["▁theft",0.0],["▁tube",0.0],["@@",0.0],["▁query",0.0],["▁Lincoln",0.0],["▁publishing",0.0],["▁wore",0.0],["orical",0.0],["▁ric",0.0],["▁notable",0.0],["▁subsequently",0.0],["nex",0.0],["▁observe",0.0],["▁Boe",0.0],["▁codes",0.0],["main",0.0],["WH",0.0],["▁SL",0.0],["▁residential",0.0],["avan",0.0],["▁mas",0.0],["arest",0.0],["adeon",0.0],["OUT",0.0],["▁sophistic",0.0],["ante",0.0],["▁cens",0.0],["▁**",0.0],["▁mortality",0.0],["▁yours",0.0],["▁occasions",0.0],["▁recalled",0.0],["▁Driver",0.0],["▁vocal",0.0],["▁bathroom",0.0],["▁shops",0.0],["▁collaboration",0.0],["▁Obamacare",0.0],["▁Cell",0.0],["Char",0.0],["Super",0.0],["Cre",0.0],["▁tends",0.0],["▁torn",0.0],["▁economics",0.0],["avery",0.0],["▁Raid",0.0],["▁Sem",0.0],["▁shoulders",0.0],["▁expecting",0.0],["▁examination",0.0],["ename",0.0],["▁UI",0.0],["iability",0.0],["olas",0.0],["▁Amb",0.0],["▁Dra",0.0],["▁midfield",0.0],["▁IC",0.0],["▁layout",0.0],["▁floating",0.0],["fi",0.0],["itative",0.0],["▁tremendous",0.0],["▁Ð",0.0],["▁abund",0.0],["Work",0.0],["▁Lightning",0.0],["▁similarly",0.0],["▁conservatives",0.0],["▁pray",0.0],["BE",0.0],["izarre",0.0],["▁tempt",0.0],["▁emphasis",0.0],["▁Metro",0.0],["▁fishing",0.0],["▁marry",0.0],["neg",0.0],["▁Study",0.0],["▁reck",0.0],["▁dispos",0.0],["oning",0.0],["bsite",0.0],["▁suspic",0.0],["▁merch",0.0],["▁Gib",0.0],["▁Description",0.0],["▁DVD",0.0],["whe",0.0],["▁Yemen",0.0],["▁environments",0.0],["ooting",0.0],["▁Modern",0.0],["eu",0.0],["▁reflects",0.0],["▁honey",0.0],["▁analyst",0.0],["▁gut",0.0],["dec",0.0],["Action",0.0],["▁households",0.0],["▁ster",0.0],["▁temple",0.0],["▁reforms",0.0],["▁favourite",0.0],["▁deadline",0.0],["▁LE",0.0],["Three",0.0],["▁Within",0.0],["Aug",0.0],["▁nights",0.0],["elta",0.0],["▁invalid",0.0],["▁Exchange",0.0],["▁Delhi",0.0],["when",0.0],["income",0.0],["▁ðŁ",0.0],["▁wireless",0.0],["scribe",0.0],["ista",0.0],["▁hostile",0.0],["▁ally",0.0],["▁gig",0.0],["▁outlets",0.0],["▁Dor",0.0],["EMENT",0.0],["▁ash",0.0],["▁abstract",0.0],["ORD",0.0],["▁Motor",0.0],["▁adviser",0.0],["istle",0.0],["▁bases",0.0],["▁courtesy",0.0],["▁crossing",0.0],["▁cleared",0.0],["▁refugee",0.0],["cosystem",0.0],["▁throws",0.0],["fun",0.0],["bourne",0.0],["days",0.0],["▁disagree",0.0],["▁Native",0.0],["▁reflected",0.0],["▁Fast",0.0],["▁Yellow",0.0],["▁Singapore",0.0],["▁Raven",0.0],["▁embrace",0.0],["▁Ku",0.0],["▁Chen",0.0],["▁Early",0.0],["▁appointment",0.0],["▁Mini",0.0],["itement",0.0],["▁placing",0.0],["▁bicy",0.0],["SR",0.0],["▁whis",0.0],["SU",0.0],["▁investigated",0.0],["▁photographs",0.0],["github",0.0],["▁Beat",0.0],["▁Ring",0.0],["ighed",0.0],["iar",0.0],["▁evolved",0.0],["erald",0.0],["▁dun",0.0],["▁hub",0.0],["IAL",0.0],["▁encouraging",0.0],["▁Print",0.0],["▁Days",0.0],["▁prosecution",0.0],["▁pants",0.0],["azy",0.0],["live",0.0],["▁fossil",0.0],["▁Ju",0.0],["▁rocks",0.0],["udge",0.0],["▁Race",0.0],["▁greet",0.0],["bie",0.0],["▁filling",0.0],["▁Len",0.0],["▁diabetes",0.0],["▁firearms",0.0],["uming",0.0],["enezuel",0.0],["▁BB",0.0],["▁accepting",0.0],["ATH",0.0],["▁resort",0.0],["▁hunt",0.0],["rik",0.0],["ucker",0.0],["aments",0.0],["▁sustained",0.0],["▁crossed",0.0],["▁breakfast",0.0],["▁attributes",0.0],["lected",0.0],["atile",0.0],["▁vibr",0.0],["▁Kal",0.0],["arson",0.0],["oples",0.0],["▁touched",0.0],["▁damages",0.0],["▁impressed",0.0],["rup",0.0],["▁anch",0.0],["▁Adams",0.0],["Hel",0.0],["▁Victor",0.0],["▁mounted",0.0],["▁CC",0.0],["▁delicious",0.0],["span",0.0],["ella",0.0],["▁elabor",0.0],["amples",0.0],["▁defic",0.0],["▁constitu",0.0],["uates",0.0],["▁Mission",0.0],["▁Ther",0.0],["▁Monster",0.0],["bes",0.0],["Reuters",0.0],["▁Indones",0.0],["hill",0.0],["munition",0.0],["▁confirmation",0.0],["▁Consider",0.0],["acent",0.0],["▁jet",0.0],["▁Employ",0.0],["▁GTX",0.0],["nan",0.0],["▁Spider",0.0],["▁processor",0.0],["▁patri",0.0],["▁Pentagon",0.0],["▁Robinson",0.0],["▁realistic",0.0],["Ã±",0.0],["▁appearing",0.0],["▁pipe",0.0],["omed",0.0],["▁fru",0.0],["▁awful",0.0],["▁evaluation",0.0],["▁intelligent",0.0],["▁Citiz",0.0],["▁fundra",0.0],["odium",0.0],["▁tweets",0.0],["▁worn",0.0],["pring",0.0],["▁kidn",0.0],["▁rebels",0.0],["▁Kam",0.0],["▁Netherlands",0.0],["▁SW",0.0],["▁acquisition",0.0],["▁Male",0.0],["ãĥª",0.0],["ombies",0.0],["▁tradem",0.0],["▁Status",0.0],["Bre",0.0],["▁THIS",0.0],["▁adverse",0.0],["▁NEW",0.0],["sign",0.0],["▁organisation",0.0],["enc",0.0],["▁Harper",0.0],["apor",0.0],["▁Members",0.0],["▁Peace",0.0],["▁Airport",0.0],["▁Others",0.0],["▁scratch",0.0],["▁Pil",0.0],["▁sensor",0.0],["▁adoption",0.0],["▁Hotel",0.0],["▁Drag",0.0],["▁honestly",0.0],["▁yard",0.0],["▁Forces",0.0],["▁patent",0.0],["▁bass",0.0],["▁quietly",0.0],["▁breathing",0.0],["▁pose",0.0],["iors",0.0],["▁Jess",0.0],["static",0.0],["ITE",0.0],["Offic",0.0],["▁jew",0.0],["wcs",0.0],["▁140",0.0],["▁preview",0.0],["ippi",0.0],["▁unfortunately",0.0],["okemon",0.0],["▁horn",0.0],["▁reass",0.0],["▁peer",0.0],["ocker",0.0],["▁unto",0.0],["▁Gray",0.0],["▁cleaning",0.0],["▁attracted",0.0],["2007",0.0],["Point",0.0],["kill",0.0],["▁Agreement",0.0],["urches",0.0],["▁horr",0.0],["▁Mississ",0.0],["▁worthy",0.0],["▁flowers",0.0],["town",0.0],["dll",0.0],["▁reactions",0.0],["▁dece",0.0],["▁indicating",0.0],["MD",0.0],["▁preference",0.0],["▁MVP",0.0],["essional",0.0],["▁Target",0.0],["gence",0.0],["▁Indians",0.0],["▁misc",0.0],["▁freely",0.0],["▁muscles",0.0],["▁lineup",0.0],["▁impacts",0.0],["ousing",0.0],["omi",0.0],["acular",0.0],["▁controlling",0.0],["agine",0.0],["cery",0.0],["hell",0.0],["▁ranking",0.0],["▁Nich",0.0],["▁Ave",0.0],["128",0.0],["▁highway",0.0],["▁incons",0.0],["▁binding",0.0],["▁struggles",0.0],["▁Pittsburgh",0.0],["▁gray",0.0],["rin",0.0],["▁comics",0.0],["▁Sport",0.0],["▁relatives",0.0],["▁fright",0.0],["▁probe",0.0],["▁Portug",0.0],["▁voc",0.0],["▁tu",0.0],["▁Corps",0.0],["▁possibilities",0.0],["▁qualify",0.0],["wcsstore",0.0],["▁libraries",0.0],["▁migrants",0.0],["▁entries",0.0],["▁consecutive",0.0],["vals",0.0],["▁Chairman",0.0],["▁hill",0.0],["IME",0.0],["▁Gard",0.0],["▁inequality",0.0],["fox",0.0],["▁Save",0.0],["▁cort",0.0],["claimed",0.0],["▁traits",0.0],["▁pour",0.0],["▁missiles",0.0],["▁essence",0.0],["▁sends",0.0],["▁alliance",0.0],["▁wishes",0.0],["▁Christopher",0.0],["Big",0.0],["NY",0.0],["▁Jacob",0.0],["san",0.0],["urred",0.0],["▁SO",0.0],["lly",0.0],["▁advocate",0.0],["▁Bond",0.0],["▁\"/",0.0],["Using",0.0],["▁districts",0.0],["▁Gate",0.0],["▁Bir",0.0],["ridge",0.0],["▁Naz",0.0],["▁Rs",0.0],["boards",0.0],["▁Ga",0.0],["▁Reagan",0.0],["▁influenced",0.0],["1000",0.0],["apy",0.0],["▁challenged",0.0],["▁barg",0.0],["▁faculty",0.0],["▁Fif",0.0],["▁acquire",0.0],["Ac",0.0],["▁insect",0.0],["▁instruments",0.0],["▁leaf",0.0],["thodox",0.0],["Message",0.0],["▁tale",0.0],["▁thereby",0.0],["▁trap",0.0],["▁strongest",0.0],["▁Military",0.0],["isible",0.0],["▁1984",0.0],["etheless",0.0],["▁flexible",0.0],["▁kills",0.0],["▁finishing",0.0],["▁Size",0.0],["▁reduces",0.0],["▁epid",0.0],["▁orientation",0.0],["full",0.0],["▁trace",0.0],["▁laser",0.0],["▁oppose",0.0],["▁editing",0.0],["▁momentum",0.0],["äº",0.0],["show",0.0],["VI",0.0],["▁Lad",0.0],["▁1985",0.0],["▁murdered",0.0],["900",0.0],["uther",0.0],["▁probability",0.0],["▁Poll",0.0],["▁reluct",0.0],["▁Chem",0.0],["▁Montreal",0.0],["▁adequate",0.0],["▁Poland",0.0],["▁Sheriff",0.0],["umph",0.0],["▁ok",0.0],["▁000",0.0],["▁\"[",0.0],["▁operators",0.0],["▁Fer",0.0],["▁modes",0.0],["▁Eve",0.0],["▁discipline",0.0],["NET",0.0],["Hand",0.0],["▁oral",0.0],["▁WE",0.0],["email",0.0],["JP",0.0],["▁Palestinians",0.0],["▁hence",0.0],["▁Less",0.0],["▁overl",0.0],["dig",0.0],["▁intimid",0.0],["▁Coal",0.0],["▁ranging",0.0],["tha",0.0],["▁distant",0.0],["▁fib",0.0],["▁Index",0.0],["▁Wonder",0.0],["▁Pel",0.0],["hattan",0.0],["▁Hug",0.0],["ÃĹ",0.0],["rait",0.0],["▁wrapped",0.0],["▁RPG",0.0],["▁chemicals",0.0],["▁Money",0.0],["▁frozen",0.0],["▁indirect",0.0],["▁Against",0.0],["End",0.0],["▁uncomfortable",0.0],["▁Gallery",0.0],["▁Posted",0.0],["Ø§",0.0],["onduct",0.0],["▁consequence",0.0],["▁bitter",0.0],["▁1987",0.0],["pop",0.0],["▁countless",0.0],["▁Alaska",0.0],["ffff",0.0],["▁departure",0.0],["▁refund",0.0],["▁Ian",0.0],["iated",0.0],["▁seeks",0.0],["▁mechanics",0.0],["▁jurisdiction",0.0],["lynn",0.0],["▁alike",0.0],["▁Hunt",0.0],["athon",0.0],["▁resolved",0.0],["▁cache",0.0],["▁distinction",0.0],["direct",0.0],["▁encount",0.0],["oub",0.0],["beat",0.0],["▁Country",0.0],["search",0.0],["▁continuous",0.0],["▁modest",0.0],["▁Rail",0.0],["thood",0.0],["130",0.0],["BUG",0.0],["▁criminals",0.0],["▁indication",0.0],["▁encountered",0.0],["last",0.0],["▁Wy",0.0],["▁ideology",0.0],["▁PDF",0.0],["security",0.0],["])",0.0],["▁Jimmy",0.0],["▁EN",0.0],["▁hiring",0.0],["Tem",0.0],["▁pig",0.0],["aunt",0.0],["▁Crystal",0.0],["▁penalties",0.0],["▁capability",0.0],["▁py",0.0],["▁productive",0.0],["▁balanced",0.0],["▁GeForce",0.0],["click",0.0],["olitan",0.0],["ods",0.0],["▁afterwards",0.0],["▁playoffs",0.0],["▁Gill",0.0],["User",0.0],["▁backs",0.0],["pub",0.0],["tag",0.0],["▁absurd",0.0],["piring",0.0],["▁citing",0.0],["▁trillion",0.0],["▁obligation",0.0],["▁maxim",0.0],["ahoo",0.0],["cf",0.0],["umi",0.0],["▁Alpha",0.0],["▁Nelson",0.0],["▁pursuant",0.0],["initely",0.0],["▁fract",0.0],["entry",0.0],["bery",0.0],["▁Thor",0.0],["Added",0.0],["▁DJ",0.0],["▁Gene",0.0],["▁awkward",0.0],["Stud",0.0],["▁wallet",0.0],["▁Divine",0.0],["arios",0.0],["▁releasing",0.0],["▁edited",0.0],["▁accomplished",0.0],["Best",0.0],["▁edges",0.0],["▁planes",0.0],["▁feeding",0.0],["\"},\"",0.0],["▁disclosure",0.0],["▁grain",0.0],["airy",0.0],["oons",0.0],["ernand",0.0],["VR",0.0],["▁reasonably",0.0],["▁drum",0.0],["▁partial",0.0],["▁graphic",0.0],["▁unprecedented",0.0],["▁advised",0.0],["Micro",0.0],["▁Assad",0.0],["points",0.0],["scar",0.0],["▁Zone",0.0],["ttes",0.0],["▁700",0.0],["vo",0.0],["▁Hamp",0.0],["▁fixes",0.0],["▁caution",0.0],["▁strings",0.0],["▁panels",0.0],["▁leak",0.0],["▁pricing",0.0],["rowth",0.0],["▁Error",0.0],["▁Saints",0.0],["fix",0.0],["▁observations",0.0],["▁Abs",0.0],["▁suggestion",0.0],["▁Ukrainian",0.0],["▁barrier",0.0],["▁painted",0.0],["Bet",0.0],["imir",0.0],["▁Spect",0.0],["pot",0.0],["orneys",0.0],["▁compound",0.0],["▁bears",0.0],["▁Rush",0.0],["▁luxury",0.0],["Sum",0.0],["▁orbit",0.0],["▁Marc",0.0],["▁exempt",0.0],["▁Trail",0.0],["▁MO",0.0],["▁Hans",0.0],["▁Weapon",0.0],["ocused",0.0],["uminum",0.0],["▁Jerry",0.0],["▁bust",0.0],["▁AG",0.0],["▁Wiki",0.0],["▁endless",0.0],["▁Vlad",0.0],["▁Bah",0.0],["▁Radeon",0.0],["keys",0.0],["▁Survey",0.0],["▁Viol",0.0],["define",0.0],["lean",0.0],["▁commod",0.0],["▁revenues",0.0],["Åį",0.0],["▁furniture",0.0],["▁casting",0.0],["▁diplomatic",0.0],["▁Players",0.0],["▁Killed",0.0],["▁modify",0.0],["▁innovative",0.0],["▁Abu",0.0],["nor",0.0],["▁bonds",0.0],["▁coaching",0.0],["Mer",0.0],["▁modules",0.0],["▁Patriots",0.0],["▁enhanced",0.0],["▁proceedings",0.0],["▁teammates",0.0],["▁128",0.0],["ardo",0.0],["▁compromise",0.0],["▁Much",0.0],["▁flew",0.0],["▁Edge",0.0],["▁unnecessary",0.0],["▁doctrine",0.0],["report",0.0],["▁Orlando",0.0],["▁Profile",0.0],["▁playoff",0.0],["friendly",0.0],["▁complain",0.0],["▁MC",0.0],["▁Opt",0.0],["▁GB",0.0],["▁beaten",0.0],["▁golf",0.0],["▁placement",0.0],["Bit",0.0],["▁newsletter",0.0],["▁2019",0.0],["visor",0.0],["rawl",0.0],["▁iPad",0.0],["▁acted",0.0],["▁juice",0.0],["▁decks",0.0],["PN",0.0],["success",0.0],["▁Half",0.0],["▁deleted",0.0],["▁secrets",0.0],["▁asylum",0.0],["Mart",0.0],["▁Activ",0.0],["▁Guy",0.0],["▁Ts",0.0],["▁dys",0.0],["▁assuming",0.0],["▁mana",0.0],["▁subur",0.0],["▁125",0.0],["Media",0.0],["ARY",0.0],["ride",0.0],["cp",0.0],["▁difficulties",0.0],["▁collecting",0.0],["▁bankrupt",0.0],["non",0.0],["▁composed",0.0],["▁volt",0.0],["▁militants",0.0],["▁>>>",0.0],["▁Mormon",0.0],["tor",0.0],["▁particles",0.0],["▁Bart",0.0],["ryption",0.0],["▁admin",0.0],["▁squee",0.0],["VIDIA",0.0],["▁creator",0.0],["iameter",0.0],["icular",0.0],["NBC",0.0],["▁grabbed",0.0],["▁nodd",0.0],["▁rated",0.0],["▁rotation",0.0],["▁grasp",0.0],["▁excessive",0.0],["▁EC",0.0],["▁Whit",0.0],["▁inventory",0.0],["aults",0.0],["▁FB",0.0],["▁ecosystem",0.0],["▁billions",0.0],["▁venture",0.0],["named",0.0],["▁defender",0.0],["oute",0.0],["Instead",0.0],["irable",0.0],["War",0.0],["▁assumption",0.0],["▁bite",0.0],["▁earthqu",0.0],["tail",0.0],["space",0.0],["▁gifts",0.0],["boys",0.0],["▁inevitable",0.0],["▁structural",0.0],["▁beneficial",0.0],["▁compelling",0.0],["hole",0.0],["ervation",0.0],["▁coat",0.0],["oj",0.0],["incarn",0.0],["▁Years",0.0],["▁determining",0.0],["▁rhetoric",0.0],["▁boundaries",0.0],["▁whites",0.0],["Ant",0.0],["addy",0.0],[")-",0.0],["raham",0.0],["etermin",0.0],["▁harvest",0.0],["▁Conc",0.0],["▁laptop",0.0],["▁Match",0.0],["▁enjoying",0.0],["cca",0.0],["ollar",0.0],["▁trips",0.0],["▁addiction",0.0],["▁Sak",0.0],["▁powered",0.0],["▁cous",0.0],["▁Russians",0.0],["iere",0.0],["▁retrie",0.0],["quality",0.0],["▁differ",0.0],["▁kingdom",0.0],["▁Laur",0.0],["▁Capitol",0.0],["▁conclusions",0.0],["▁Altern",0.0],["▁Nav",0.0],["▁transparent",0.0],["BER",0.0],["Group",0.0],["▁Complete",0.0],["▁infer",0.0],["▁intrig",0.0],["▁insane",0.0],["RO",0.0],["ophob",0.0],["isen",0.0],["qual",0.0],["Michael",0.0],["▁museum",0.0],["▁Pope",0.0],["▁reset",0.0],["rative",0.0],["five",0.0],["▁aggreg",0.0],["ittees",0.0],["ository",0.0],["▁carb",0.0],["▁Record",0.0],["▁decides",0.0],["▁Fix",0.0],["▁exceptions",0.0],["▁Commissioner",0.0],["uns",0.0],["▁Environmental",0.0],["▁legendary",0.0],["istence",0.0],["▁tunnel",0.0],["km",0.0],["▁insult",0.0],["▁troll",0.0],["▁shake",0.0],["▁detention",0.0],["ques",0.0],["▁Chrome",0.0],["▁Files",0.0],["▁subt",0.0],["▁prospects",0.0],["▁prol",0.0],["render",0.0],["proof",0.0],["▁performances",0.0],["Str",0.0],["▁href",0.0],["ername",0.0],["▁achievement",0.0],["▁fut",0.0],["Full",0.0],["▁Leban",0.0],["google",0.0],["ãĥĪ",0.0],["ampa",0.0],["Maybe",0.0],["▁projected",0.0],["▁Emb",0.0],["▁colleg",0.0],["▁awards",0.0],["▁âĶ",0.0],["Gold",0.0],["▁Blake",0.0],["▁Raj",0.0],["ifting",0.0],["▁pending",0.0],["▁instinct",0.0],["▁developments",0.0],["Connect",0.0],["▁Mand",0.0],["▁WITH",0.0],["▁Philippines",0.0],["profile",0.0],["▁altogether",0.0],["▁Bund",0.0],["▁TD",0.0],["oooo",0.0],["amped",0.0],["iph",0.0],["▁steam",0.0],["▁oldest",0.0],["▁detection",0.0],["ulpt",0.0],["▁ç",0.0],["▁Wayne",0.0],["2006",0.0],["fa",0.0],["▁circles",0.0],["▁Fu",0.0],["▁donors",0.0],["appropriate",0.0],["▁Dakota",0.0],["jamin",0.0],["▁motivated",0.0],["▁purchases",0.0],["▁Louisiana",0.0],["▁Spl",0.0],["▁globe",0.0],["▁105",0.0],["zip",0.0],["call",0.0],["▁departments",0.0],["▁sustainable",0.0],["105",0.0],["▁OP",0.0],["ifiers",0.0],["▁prevented",0.0],["▁incomp",0.0],["▁Commander",0.0],["▁dominated",0.0],["▁Â»",0.0],["▁invested",0.0],["▁complexity",0.0],["▁incl",0.0],["▁ensuring",0.0],["▁realm",0.0],["ync",0.0],["▁Independent",0.0],["rained",0.0],["▁Jen",0.0],["▁Flight",0.0],["▁athe",0.0],["▁speculation",0.0],["▁TE",0.0],["ocate",0.0],["tic",0.0],["▁plaint",0.0],["herry",0.0],["▁toy",0.0],["▁111",0.0],["▁plates",0.0],["status",0.0],["▁Isa",0.0],["▁devoted",0.0],["Cop",0.0],["▁ES",0.0],["255",0.0],["urrency",0.0],["Main",0.0],["▁slaves",0.0],["▁pepper",0.0],["▁quotes",0.0],["▁ceiling",0.0],["▁Fish",0.0],["▁transformation",0.0],["▁fraction",0.0],["▁advantages",0.0],["▁toile",0.0],["▁stunning",0.0],["▁moist",0.0],["breaking",0.0],["si",0.0],["▁Location",0.0],["▁Medium",0.0],["▁texts",0.0],["▁ugly",0.0],["▁bio",0.0],[".âĢĶ",0.0],["▁Based",0.0],["▁trains",0.0],["▁Wing",0.0],["▁Ancient",0.0],["▁Records",0.0],["▁Hope",0.0],["Special",0.0],["adesh",0.0],["obi",0.0],["[/",0.0],["▁temporarily",0.0],["Ver",0.0],["hu",0.0],["oser",0.0],["▁overnight",0.0],["▁mamm",0.0],["▁Treasury",0.0],
[...]
